#version: 0.2
i n
a r
t h
a n
r e
a t
e r
e n
s t
i n</w>
d e</w>
o r
th e</w>
i t
o n
a l
a c
u n
a t</w>
i l
i c
u r
o t
d e
o s
p r
en t
e l
o r</w>
ar e</w>
o n</w>
u l</w>
a p
i m
an d</w>
u l
in g</w>
q u
a s
e d</w>
@ -
@- @</w>
t o</w>
e r</w>
s i</w>
o m
qu ot
quot ;</w>
& quot;</w>
e c
o f</w>
e a</w>
a m
e st
a l</w>
in t
i s
o l
i s</w>
e s</w>
at i
a n</w>
s a</w>
c a</w>
l a</w>
u t
a s</w>
a r</w>
o p
i t</w>
e s
o u
i v
c on
i i</w>
r u</w>
e m
ap os
& apos
u i</w>
at e</w>
e t
m a
i g
i r
i e</w>
c are</w>
p l
a v
u n</w>
a u</w>
u c
d in</w>
o c
en t</w>
i a</w>
e n</w>
a b
u s
ent ru</w>
&apos ;
p entru</w>
c h
il e</w>
a d
t r
e x
p re
w h
est e</w>
s p
u t</w>
pr o
c u</w>
a g
u m
n o
i st
ar t
th at</w>
c om
c l
e i</w>
el e</w>
c e</w>
e v
os t</w>
er e</w>
r o
i d
a f
e d
f or</w>
at a</w>
i on</w>
p e</w>
l y</w>
s e</w>
a st
l e</w>
ul ui</w>
c o
&apos; s</w>
s u
f or
i z
e g
e l</w>
n u</w>
ma i</w>
a z
an t
f ost</w>
a m</w>
ec t
p er
s h
a i
il or</w>
th e
o v
d i
t re
al e</w>
st r
l i
in c
e re
ar ea</w>
w it
a y</w>
or t
er s</w>
i on
n e
wit h</w>
t im
s e
l o
s c
es t</w>
w as</w>
p o
in e</w>
ac t
r e</w>
h e</w>
b e
b e</w>
g r
i c</w>
f ic
d o
av e</w>
u p
p art
ac est
b l
ati on</w>
p ut
re c
t o
2 0
er n
ic e</w>
i b
ur i</w>
v a</w>
b y</w>
an d
re s
ai d</w>
l e
th is</w>
ul t
h ave</w>
a d</w>
m o
w e</w>
il l</w>
ic a</w>
ig h
ar a</w>
o f
f ac
s aid</w>
c re
ou t</w>
u m</w>
ur op
it y</w>
ul d</w>
in g
i l</w>
p ol
i un
v i
k e</w>
u s</w>
a y
i es</w>
un c
at or
ati on
e t</w>
ro m</w>
im p
e p
a u
h as</w>
f rom</w>
at i</w>
al a</w>
no t</w>
p ar
on e</w>
az a</w>
s un
iv e</w>
b ut</w>
i al</w>
it e</w>
f i</w>
an t</w>
b u
an a</w>
th er</w>
de c
b r
ap t
an i</w>
al l</w>
E urop
s au</w>
s o</w>
for m
f o
h is</w>
c r
ir m
d is
ou r</w>
re p
f r
e ar
t er</w>
i p
m in
t a
de cl
s er
ac e
m ar
l uc
pre s
or e</w>
b o
ac est</w>
an g
re g
f in
w ill</w>
ir e</w>
w or
o b
int r</w>
el or</w>
a j
sun t</w>
o uld</w>
&apos ;</w>
20 1
pr iv
d uc
t in
f i
the y</w>
l eg
i r</w>
y o
an c
de s
al t
C h
e m</w>
t er
ast a</w>
con s
w e
ic h</w>
m ent</w>
or d
0 0</w>
i o
S t
ur ile</w>
pr im
l oc
it at
de r</w>
com p
decl ar
m on
i ei</w>
un d
l ui</w>
in a</w>
wh ich</w>
s t</w>
m an
or t</w>
as t</w>
in v
u d
ur e</w>
ace asta</w>
int re</w>
af irm
d r
an e</w>
i m</w>
n um
ur a</w>
U n
un a</w>
pol it
the ir</w>
p u
en d
igh t</w>
wh o</w>
it a</w>
m il
up a</w>
v er
f er
al ly</w>
yo u</w>
k ing</w>
e an</w>
o w
d ar</w>
e ar</w>
ati i</w>
us e</w>
be en</w>
u p</w>
i ar</w>
in d
us t</w>
o o
ou g
d ay</w>
e z
per s
afirm at</w>
p e
it ate</w>
e f
m ore</w>
it s</w>
m ult
in d</w>
em b
de v
ec on
h ad</w>
es s</w>
un t
ent s</w>
ul t</w>
as e</w>
d upa</w>
c ar
ur m
ac c
om e</w>
ac a</w>
en er
a in
C om
i an</w>
ion s</w>
de d</w>
as a</w>
ag e</w>
e aza</w>
c al
pr i
n e</w>
declar at</w>
w ould</w>
ser v
g u
con tr
ere a</w>
am p
k s</w>
w ere</w>
am ent
er i</w>
B r
re a</w>
ent a</w>
c ur
c e
luc ru</w>
g e</w>
th ere</w>
m is
p os
c and</w>
un e</w>
f l
tre bu
h er</w>
int e</w>
tim p</w>
itat ea</w>
r a
ab out</w>
al so</w>
h e
ic t
v e</w>
ou a</w>
re sp
en s
u str
c um</w>
m ed
o are</w>
re n
c at
ar y</w>
ac k</w>
p i
ic i</w>
an s
am e</w>
ec h
es s
un d</w>
ist r
r ap
d aca</w>
i fic
ar ii</w>
&apos; t</w>
int er
ar d</w>
ar i</w>
ab le</w>
pre z
ab il
pr op
j o
P ar
re l
af ter</w>
ex ist
I n
s ol
at ed</w>
c an</w>
ant a</w>
r iv
sh e</w>
on g</w>
er c
t ur
er a</w>
wh en</w>
m e
ay s</w>
trebu ie</w>
t e
Europ ean</w>
acest a</w>
u z
il l
de z
i d</w>
tim e</w>
an ce</w>
op le</w>
o g
y ear</w>
i ile</w>
s ch
o ther</w>
no w</w>
int a</w>
ol d</w>
imp ort
a ut
o w</w>
pe ople</w>
i f
em en
ec t</w>
el y</w>
t a</w>
econ om
an s</w>
c h</w>
A n
in cl
as s
el l</w>
m are</w>
as emen
asemen ea</w>
m ult</w>
re d</w>
i u</w>
i de</w>
put ea</w>
os e</w>
at t
d s</w>
w n</w>
b ec
sc r
ati e</w>
i f</w>
fic i
pr e</w>
r a</w>
e w</w>
g o
su p
t w
or i</w>
oc i
as u
id ent</w>
c ele</w>
l or</w>
t s</w>
pr oc
im b
oug h</w>
c u
fac e</w>
1 9
en ce</w>
op er
g re
ation s</w>
s it
ation al</w>
m as
ou s</w>
l un
con tin
wh at</w>
th an</w>
un ui</w>
c ol
comp an
ac e</w>
o ar
s ec
co un
d ata</w>
at es</w>
v or</w>
u g
is t</w>
or d</w>
f ie</w>
i de
re z
m y</w>
sp ec
at or</w>
es e</w>
m an</w>
pro bl
en i</w>
a w
f ir
u e</w>
k ed</w>
m e</w>
c el</w>
m un
ce ea</w>
d intre</w>
s uc
rec t
0 00</w>
s im
ic al</w>
ne w</w>
f am
ac h
c ut
mo d</w>
s on</w>
c ent
ot riv
g an
ov er</w>
em ent</w>
i ul</w>
art e</w>
pr in</w>
al iz
en d</w>
c ap
C o
m er
a in</w>
li ke</w>
t h</w>
is e</w>
inv est
f a
in to</w>
to ate</w>
pro v
f el</w>
o m</w>
e as
tw o</w>
s ur
ez e</w>
iun e</w>
pers o
st at
d o</w>
f ere
fam il
d oua</w>
a i</w>
i v</w>
or ul</w>
ev er</w>
ear s</w>
ar g
M r</w>
l u
int re
des pre</w>
s ig
pr ot
o l</w>
a pro
ati a</w>
al s</w>
pu bl
do ar</w>
C on
s el
20 0
ep t
mis s
ec e</w>
c op
con d
e y</w>
iv er
ut e</w>
l ine</w>
n a</w>
pr a</w>
M ar
d rep
re e</w>
v ot
ent e</w>
fir st</w>
asu pra</w>
t ot
l ed</w>
s ome</w>
c ut</w>
en e</w>
A l
on d
probl em
n o</w>
j ust</w>
de p
unc t
f ol
is h</w>
f ata</w>
F r
er t
exist a</w>
st it
re s</w>
m it
in a
part e</w>
ol og
acest ea</w>
ev er
re v
m emb
a use</w>
pres ed
pro duc
u b
l ast</w>
oo d</w>
ing s</w>
b et
at at</w>
mo d
z it
o am
m ent
m ost</w>
ad a</w>
for e</w>
su b
di rect
ac um</w>
com pl
o k</w>
p ort
a k
f apt
p h
am ent</w>
en c
f e
al l
po ate</w>
v ar
coun tr
n ing</w>
in ch
th ing</w>
g et</w>
the m</w>
o ut
h el
ov ern
c ea</w>
c ei</w>
id ent
o s</w>
ap p
U S
m i
y ears</w>
A ustr
f il
or s</w>
i p</w>
we e
b ar
P res
s apt
e w
ev a</w>
d om
o i</w>
de m
am a</w>
v al
lo w
co uld</w>
j u
on ly</w>
ul tim
er ii</w>
as p
in form
t al
s ale</w>
g ener
pro f
o ur
es c</w>
in sa</w>
fere n
ver y</w>
Austr al
un ei</w>
sh ould</w>
m a</w>
ator ii</w>
l um
b el
t on</w>
or gan
it ion</w>
pr om
unc i</w>
at unci</w>
con t
ac h</w>
am b
an ul</w>
lo c</w>
p at
fo arte</w>
ev en</w>
it i</w>
re t
l and</w>
in s
t ing</w>
av ut</w>
contin u
et i</w>
au g
ati ve</w>
l in
mult e</w>
fac ut</w>
tr ans
bec ause</w>
m at
int ern
en ii</w>
tre b
ic i
import ant</w>
for t
treb ui</w>
ma j
p ana</w>
wor k</w>
l a
ex p
2 0</w>
i rea</w>
iun ea</w>
s oci
J o
dec at</w>
l d</w>
re st
im in
d re
v ol
wh ere</w>
s al
man y</w>
c at</w>
v e
ur ilor</w>
in s</w>
S h
w ay</w>
c el
r i
1 0</w>
pl e</w>
it ies</w>
c ast
v ern
ac t</w>
au z
c er
at ing</w>
b an
be ing</w>
th ese</w>
n ed</w>
ar ile</w>
is h
gu vern
ex pl
g overn
ina inte</w>
priv ire</w>
b ack</w>
US D</w>
A r
f em
c a
cat re</w>
wh ile</w>
i ect
& #
&# 9
w i
cre st
r ul</w>
n ec
po zit
m om
h im</w>
d ur
f ur
fin anc
inc re
h ow</w>
ex per
g ro
Br it
th r
op t
emb er</w>
fapt ul</w>
u r</w>
i si</w>
i ev
or y</w>
at ul</w>
or b
en s</w>
n eg
ab il</w>
urm a</w>
ati v</w>
sapt am
b er
am er
s om
oc r
b er</w>
ib il
li c</w>
ic h
o t</w>
c ot
ac este</w>
c amp
sit u
ator i</w>
em br
T h
priv ind</w>
st a</w>
be fore</w>
ac k
luc r
t el
v en
part ic
resp on
ain st</w>
i at</w>
u al</w>
de l
as h
act iv
ag ainst</w>
pro gr
otriv a</w>
r is
pl ay
w ell</w>
s em
ar m
uc t
m ov
imp otriva</w>
ma ke</w>
j ur
co ur
et s</w>
tr an
in k</w>
. .
an y</w>
b at
or a</w>
oar ece</w>
no i</w>
put in</w>
us ed</w>
mun ca</w>
de oarece</w>
b ot
ar ul</w>
m ot
r y</w>
int ere
th ose</w>
ec ut
ma de</w>
po t</w>
n er</w>
ic at</w>
ch ang
l ing</w>
tre i</w>
ic an</w>
a il
ut il
alt e</w>
id er
ion al</w>
p op
im ent
pre cum</w>
iver s
ol e</w>
di f
in ce</w>
i ilor</w>
oug h
im pl
M on
Com miss
p ort</w>
perso ane</w>
sp une</w>
ou s
int el
at er</w>
ech ip
v ed
cast ig
y ing</w>
th en</w>
re duc
ex t</w>
l ov
re f
min istr
it ed</w>
rep ort
sch imb
th ree</w>
b ine</w>
wi th
ic k</w>
d l</w>
it or</w>
p er</w>
lo w</w>
I s
pri j
ect ed</w>
s y
of f</w>
en g
mar k
n iv
it al</w>
suc h</w>
w r
Pres ident</w>
com e</w>
tim p
t e</w>
at ele</w>
ener g
s prij
v iz
T r
sec ur
Com is
w om
sp us</w>
c ent</w>
un de</w>
P r
m ust</w>
im e</w>
in ca</w>
r am
ta ke</w>
it or
ast ra</w>
pers on
ne ed</w>
o d
201 5</w>
ved ere</w>
pu b
at ur
s ays</w>
l ament
do wn</w>
ut a</w>
is m</w>
inc ep
c i
we en</w>
A mer
c or
pr inc
s ing
pub lic</w>
con c
o gr
l up
er i
e urop
eas ca</w>
5 0</w>
v orb
s ist
c ad
C l
.. .</w>
ai r</w>
G r
bet ween</w>
N ew</w>
util iz
i ent
g res
i j
p este</w>
os s</w>
ac ord
ati ei</w>
3 0</w>
b as
st ud
E U</w>
t ed</w>
is l
Jo h
c as
ch iar</w>
ap e</w>
al i
t old</w>
st er
su st
v is
reg ul
ect ion</w>
li f
pri et
af la</w>
ib le</w>
as i</w>
st ate</w>
f ul</w>
acest ia</w>
T he</w>
al ul</w>
r ight</w>
cr it
ch il
S y
w ar
r id
govern ment</w>
z on
in it
wee k</w>
o y
y our</w>
e p</w>
pro b
S cot
io ane</w>
n or
thr ough</w>
organ iz
iun i</w>
d oc
x im
con f
s an
th ink</w>
lo b
in i</w>
wor ld</w>
im ag
ap ar
et e</w>
ov er
ne y</w>
stit ut
lun i</w>
L e
st ill</w>
z i</w>
no u</w>
U E</w>
u it</w>
ic k
us s
uc h</w>
ig r
go ing</w>
serv ic
o und</w>
ur g
a dev
m uch</w>
part ea</w>
b en
pol ice</w>
f und
rep ort</w>
n ev
d ing</w>
- -</w>
f ara</w>
int ele</w>
se e</w>
it atii</w>
tre cut</w>
pop ul
igh ts</w>
p ur
is su
ind ustr
rap ort
C ar
em pl
in t</w>
un der</w>
Austral ia</w>
re ad
m en</w>
M c
s ay</w>
c it
st ul</w>
c es</w>
of fic
con duc
s ince</w>
ex t
f av
st and
timp ul</w>
s ect
c auz
prim ul</w>
ap oi</w>
ow n</w>
se t</w>
l es</w>
dez vol
j uc
d a</w>
per io
d um
prez ent
mil it
un ul</w>
ou p</w>
comp et
s ar
in st
az ut</w>
l ic
tran sp
r asp
, 000</w>
s i
ant s</w>
dur ing</w>
com m
cre d</w>
av ea</w>
iv a</w>
b i
pl an
g o</w>
lo o
m art
Commiss ion</w>
s ide</w>
ator ul</w>
un s</w>
ant e</w>
a h
R e
at ate</w>
ast fel</w>
is ed</w>
cons ider
pol ic
D av
f ot
g ood</w>
d u
e ther</w>
ar t</w>
mil ioane</w>
at ura</w>
a de</w>
on g
b or
m et
ec are</w>
e z</w>
i ous</w>
dev el
contr ib
on s</w>
as on</w>
ig n</w>
sel f</w>
countr y</w>
ere d</w>
ag a</w>
str uct
spec ial</w>
som e
mar i</w>
at eg
su b</w>
ang aj
st abil
mil l
incl u
pl ace</w>
v ic
St ates</w>
nev o
p unct
s us
und er
ac ord</w>
vi ata</w>
l iv
princ ip
bel iev
r an
af l
sh ip</w>
respon s
drep t
er n</w>
enc y</w>
i ului</w>
d or
inc e
Ch r
ac uz
d istr
act u
fol os
scr is</w>
un or</w>
sp ect
mult i</w>
c az
n ici</w>
as ig
Un ion</w>
sup port</w>
p ot
c an
B ar
E n
su g
f unct
ou se</w>
ex tre
ig h</w>
o k
pi er
at oare</w>
1 5</w>
h ow
var sta</w>
Europ e</w>
mill ion</w>
par t</w>
ac el
h ere</w>
am es</w>
man ag
i o</w>
ist s</w>
s oc
l im
in de
C r
l ong</w>
invest ig
ex ecut
p otriv
S u
how ever</w>
incl ud
ati ile</w>
G re
at r
sus p
vi ol
s k
1 2</w>
de t
incep ut</w>
t em
201 4</w>
al t</w>
prim a</w>
ol ut
int r
pre t
w ant</w>
ar ound</w>
g ar
di d</w>
Ch ina</w>
un os
ma y</w>
h ome</w>
l una</w>
d on</w>
g iv
s econ
li ament</w>
g l
ough t</w>
o area</w>
k e
le y</w>
s en
de s</w>
sim pl
er ile</w>
s il
st at</w>
progr am
it t
cauz a</w>
k now</w>
apro xim
b us
ai l</w>
s f
bot h</w>
dezvol t
b una</w>
d y</w>
al eg
aproxim ativ</w>
cu v
re fer
b ro
a ir
it ati</w>
v ent
includ ing</w>
b re
n ic
em ent
is ion</w>
n ext</w>
sp e
cons um
O b
apro ape</w>
str ateg
b a</w>
fi ecare</w>
A s
cond it
il ea</w>
&apos; re</w>
v es</w>
con fr
f t</w>
g lob
o st
mom ent</w>
e ana</w>
a th
devel op
g et
c um
f ul
de b
az i</w>
cad rul</w>
s ul</w>
fi ind</w>
201 3</w>
for m</w>
D e
at ac
qu est
c ult
n ot
cent r
n oua</w>
st u
f ect
nec es
g as
dep end
ap a</w>
di fic
saptam ana</w>
an other</w>
p or
i ala</w>
dis cut
m ec
t ara</w>
lif e</w>
v ict
fem e
s ame</w>
er g
ant i</w>
ag re
an n
ic s</w>
p ed</w>
econom ic</w>
countr ies</w>
ta k
dem ocr
as ca</w>
s co
j a</w>
m ents</w>
t ion</w>
g az
per m
v in
er ilor</w>
gr up
ent ul</w>
c inc
sem n
l ess</w>
n ational</w>
do i</w>
de si</w>
com un
M in
it oare</w>
un g</w>
fo und</w>
p as
oam enii</w>
Y or
h al
to o</w>
a k</w>
p et
des ch
h app
c ase</w>
h av
w s</w>
U S</w>
ch est
r ul
ol ul</w>
an y
publ ic
sol ut
rec ent</w>
cat eva</w>
e ur
itat ile</w>
l s</w>
c am
s um
i ere</w>
se ar
h um
iun ii</w>
of er
ad d
al i</w>
ati c</w>
pat ru</w>
bar b
Par liament</w>
b il
l ire</w>
potriv it</w>
c elor</w>
polit ica</w>
u res</w>
an ie</w>
ed er
M ember</w>
G er
de n</w>
po w
unc t</w>
read y</w>
maj or
pres s
C ol
li p
c i</w>
confr unt
un g
c and
o p</w>
i e
b aza</w>
t y</w>
1 1</w>
B C</w>
fac a</w>
and s</w>
W il
ist er</w>
mod ul</w>
mark et</w>
pos s
and a</w>
ogr af
ster line</w>
ac r
h op
l ev
b ur
ati va</w>
f our</w>
G e
sy st
drep t</w>
cur ren
bu il
i ale</w>
R eg
th ough</w>
pr act
pro d
u bl
c ul
m i</w>
ad opt
ad aug
es day</w>
d ov
po int
o d</w>
cl u
et at
hel p</w>
intre b
to t</w>
p ut</w>
is m
a ici</w>
k er</w>
leg isl
of f
dre n</w>
st i
priv este</w>
S p
acc ord
alt h</w>
h ol
ur t</w>
he ad</w>
H ar
niv el</w>
wom en</w>
ob iect
3 ;</w>
&#9 3;</w>
r ic
1 ;</w>
&#9 1;</w>
s o
or as
cre d
Dav id</w>
chang e</w>
Ob ama</w>
et a</w>
soc ial</w>
unc il</w>
Joh n</w>
I r
pr intre</w>
bus in
stu di
N ew
iz a</w>
urm are</w>
z ile</w>
p are</w>
vi de
i ed</w>
i ar
le ft</w>
th s</w>
gener al</w>
ist or
h igh</w>
n olog
echip a</w>
re aza</w>
2 5</w>
a im
oc k</w>
de sc
Europ a</w>
w ays</w>
le ad
ne t</w>
vi ew</w>
b uc
Yor k</w>
alt a</w>
T ur
sh ow
secon d</w>
ex am
Par lament
an u
oam eni</w>
famil y</w>
inch e
aut or
dif feren
form er</w>
k no
g est
put ern
resp ect
loc ul</w>
av em</w>
au th
ib il</w>
h igh
j um
rez ult
ort h</w>
lun g
sh ow</w>
ar ilor</w>
re qu
polic y</w>
nevo ie</w>
al ity</w>
prez inta</w>
s m
de f
co st
ast re</w>
P h
to day</w>
it ing</w>
chil dren</w>
ta x
b est</w>
ar at</w>
ic ii</w>
ion at</w>
loc u
ve de
id a</w>
exper i
un ele</w>
v re
re ally</w>
m ur
problem a</w>
memb re</w>
cinc i</w>
ing ton</w>
ent ial</w>
en ing</w>
M area</w>
p unct</w>
cut a</w>
af ac
w ard</w>
ear ly</w>
tr ad
presed inte</w>
ar ly</w>
prop os
v om</w>
aj ut
sist em
p ac
partic ul
r i</w>
C an
c ere
ol v
v an
av o
n im
dec iz
ist a</w>
g ame</w>
ever y
gr oup</w>
te am</w>
19 9
or ig
s l
f act
ur s
m ea</w>
form a</w>
ator ilor</w>
en it</w>
f ive</w>
sf ar
b un</w>
f el
accord ing</w>
v ir
&apos; ve</w>
fol low
ay ing</w>
ati un
de ter
Con sil
re aliz
a c</w>
embr ie</w>
ish ed</w>
n ici
i er</w>
rec t</w>
sun t
an k</w>
in fl
ter r
ob tin
n er
a prop
polit ical</w>
fin al</w>
P ol
di fer
intern ational</w>
am na</w>
med ic
tr im
acest ui</w>
en n
sig ur
u a</w>
int al
an ii</w>
or ii</w>
e fici
pl ac
re d
fa c</w>
ent ly</w>
B e
erc et
un at
partic ip
presed intele</w>
o th
in stitut
and u</w>
pre g
suc c
ament ul</w>
int ro
A b
a j</w>
ag o</w>
po st
gr ij
num ber</w>
E l
et y</w>
4 0</w>
or ice</w>
pl at
res c</w>
lu at</w>
pl ay</w>
r ad
re ma
C ent
loc al</w>
fi el
c o</w>
f ond
fr i
cand id
k ers</w>
cal led</w>
no astre</w>
pre a</w>
h ear
cr imin
os p
lup ta</w>
pro vi
in ed</w>
cl im
ir i</w>
hal f</w>
at h</w>
l ar
compan y</w>
ic t</w>
pi ata</w>
el s</w>
Un ivers
ever y</w>
c aut
en ed</w>
wh y</w>
ast azi</w>
po int</w>
g en
ation ale</w>
d ori</w>
m embr
decl ara</w>
ad ministr
fot ograf
r ights</w>
apt a</w>
sig n
B l
us it</w>
ar ata</w>
dom en
l arg
c in
with out</w>
S ch
b eg
Un ited</w>
to p</w>
U .
sol ic
an im
abil a</w>
com mun
s ite</w>
a w</w>
fil m</w>
intal n
n ight</w>
An g
ast r
su pr
c ercet
b ir
Co uncil</w>
out h</w>
ver s
co oper
en ded</w>
m igr
go t</w>
f oc
med ia</w>
R ep
no apt
1 8</w>
R uss
bo ok</w>
1 0
bo ur
r az
doc um
sigur anta</w>
c apt
pier d
u st
believ e</w>
an ia</w>
an ului</w>
al ready</w>
ab ile</w>
c iv
t en</w>
pl an</w>
ang a</w>
i k
de ja</w>
ed uc
f ut
m us
bet ter</w>
financ ial</w>
b un
m or
M an
e b
ap lic
ar ie</w>
com is
i or</w>
eur o</w>
e br
l as
ap pro
1 6</w>
1 4</w>
afl at</w>
O r
st art
an unt
h ot
do es</w>
B ro
r and</w>
i ally</w>
se ason</w>
k ill
oo l</w>
prob abil</w>
gro w
op in
k ey</w>
li b
cr is
1 00</w>
s ai</w>
acest ei</w>
lum e</w>
re tur
end ing</w>
er ul</w>
f ew</w>
sprij in
v azut</w>
fr on
ous ly</w>
pro iect
ch ar
on es</w>
t ere
tr a
in fr
iun ile</w>
ist i</w>
incl us
M ich
ch e
cl os
M o
ant ul</w>
o fici
sust in
ib er
lo ok</w>
en ilor</w>
proc es
&apos; m</w>
ab or
co v
cal itate</w>
n ever</w>
prop un
de sp
act ion</w>
Europ eana</w>
h am</w>
guvern ul</w>
inc erc
A fr
tak en</w>
ast ept
c etat
mon ths</w>
201 2</w>
mas ura</w>
li k
f ar</w>
p ov
s ent
S .</w>
fut ure</w>
do ilea</w>
d ist
P a
in str
ol o</w>
f irm
u i
re sear
ord in
ex c
nic io
nicio data</w>
aug h
it at</w>
d ays</w>
at s</w>
secur ity</w>
continu a</w>
per form
con serv
Ge or
d er
ec tr
leg atura</w>
al u
C or
c anc
leg al</w>
s ex
ep t</w>
e u</w>
num ele</w>
b al
am s</w>
s af
is a</w>
at ent
ven it</w>
H ol
im i</w>
syst em</w>
p ing</w>
sp ir
Chr ist
t est
no st
id ay</w>
aw ay</w>
h ar
gre at</w>
af ect
wh ether</w>
reg istr
amp ;</w>
& amp;</w>
cl ear</w>
Comis ia</w>
m ine</w>
some thing</w>
fil m
as ed</w>
acel asi</w>
inc at</w>
d iv
tre cuta</w>
us ing</w>
a h</w>
sh ar
re al</w>
itt le</w>
Brit anie</w>
or der</w>
ph ot
mon th</w>
ef ect
d en
lo t</w>
c eva</w>
empl oy
mon ey</w>
de mon
d ro
b in
crest ere</w>
giv en</w>
an um
ag ain</w>
prez ent</w>
el t
e qu
1 3</w>
tot i</w>
T u
e ach</w>
al es</w>
h om
contr ol</w>
t ern
n u
ic es</w>
th ir
ul e</w>
ang e</w>
j ect
ma king</w>
im es</w>
de al</w>
acc ept
at ului</w>
pro priet
tel ev
al itate</w>
l ater</w>
cris is</w>
p ict
D i
te h
if ic</w>
R ob
prim it</w>
a el</w>
U. S.</w>
ab ord
in grij
p ass
amer ic
L ab
un ii</w>
el l
ed s</w>
no astra</w>
adev arat</w>
1 7</w>
tur ilor</w>
prof es
j ect</w>
de scr
proc ed
ie f</w>
W ash
intre aga</w>
In d
com mit
bo dy</w>
pur t
igh t
la w</w>
L ond
t ari</w>
o bl
me u</w>
b all</w>
s ase</w>
ap pl
contin ue</w>
se en</w>
S U
Sy d
sim il
G u
to ok</w>
b az
dev enit</w>
Comis iei</w>
A d
M r
zon a</w>
ap t</w>
201 0</w>
W or
le t</w>
issu e</w>
c art
en a</w>
Syd ney</w>
fiel d</w>
on line</w>
e y
auth or
maj or</w>
bas ed</w>
1 ,
vide o</w>
f as
2 4</w>
m ight</w>
f eder
a ke</w>
p t
em ents</w>
imb unat
ad v
c unos
et ing</w>
inclus iv</w>
ist e</w>
w at
ser ie</w>
hav ing</w>
prov oc
de pl
M el
ig n
bi g</w>
end s</w>
caz ul</w>
con str
Wash ington</w>
m ici</w>
dez bat
part y</w>
W h
em s</w>
l ittle</w>
u si</w>
el ectr
conc ern
E d
busin ess</w>
n uc
wor king</w>
w in</w>
cur sul</w>
polit ia</w>
ig g
6 0</w>
th ings</w>
st art</w>
d intr</w>
de rea</w>
obl ig
camp a
im pre
the re
re usit</w>
in depend
pos ition</w>
eri or</w>
is ing</w>
n ia</w>
Q u
fac t</w>
energ y</w>
l et
ci ud
bu d
sit ul</w>
compet it
a una</w>
ev en
in registr
ic ally</w>
am pl
ac y</w>
it an
hum an</w>
cop ii</w>
g ive</w>
ar ds</w>
Is l
n ess</w>
sur pr
prot ect
si x</w>
c ir
j oc
int ent
M ed
min ute</w>
d at</w>
B o
r ol
M ad
SU A</w>
vic tim
St ate</w>
rec e
y et</w>
differen t</w>
p ast</w>
201 1</w>
on ce</w>
com erc
ag es</w>
im a</w>
ion eaza</w>
perio ada</w>
yo ung</w>
c ity</w>
art a</w>
he alth</w>
rap ort</w>
put em</w>
glob al</w>
raz bo
with in</w>
l y
S er
exist at</w>
p en
F o
t ar
re le
us h</w>
com par
i der</w>
on y</w>
f re
P et
inform ation</w>
th re
p s</w>
ref ug
clu b</w>
conf irm
an ele</w>
sunt em</w>
o ase</w>
fin d</w>
at ea</w>
ince put
ter m
c ame</w>
fi ed</w>
u ia</w>
cap it
r up
simpl u</w>
sfar situl</w>
per cent</w>
lev el</w>
U K</w>
unt il</w>
an no
m and
h ic
ind ic
financ i
ta in</w>
acr oss</w>
int on</w>
l an
P art
col l
am n
eg r
cl aim
am en
ur n
lum ea</w>
j ud
init i
i et
em p
pr im</w>
de auna</w>
am ong</w>
confrunt a</w>
nuc le
o z
su per
pres ent
ag ric
do resc</w>
poss ible</w>
af f
loc uri</w>
inc er
g h
Par is</w>
cit iz
deter min
inceput ul</w>
le ast</w>
problem e</w>
de st
al ways</w>
A p
fin ant
est i</w>
uc e</w>
dum ne
bec ome</w>
o data</w>
b une</w>
am ic</w>
p un
re prezinta</w>
leg ate</w>
impre una</w>
Un ite</w>
Un iunea</w>
as ist
z i
intro duc
dec ision</w>
ad ded</w>
w in
l aw
dr iv
for d</w>
ab ly</w>
a ur
ta king</w>
al ii</w>
f apt</w>
fici ent</w>
br itan
Mich ael</w>
s w
el ul</w>
Cl inton</w>
ar e
cl as
stat ele</w>
at ely</w>
ind iv
t ech
rec ord</w>
200 9</w>
ef fect
w on</w>
nor m
ac ks</w>
v o
cre sc
ur t
put ut</w>
ut es</w>
n atur
B el
ev alu
su f
se e
b om
d na</w>
J ames</w>
mult um
there fore</w>
ch ed</w>
wom an</w>
ab a</w>
C amer
ati ilor</w>
con fl
e e</w>
a der</w>
in se
t it
y s</w>
pow er</w>
D em
t ine</w>
iz at</w>
se z
t ut
inclu de</w>
b ill
B BC</w>
lik ely</w>
R o
am int
M at
p on
d ict
In tern
mil iar
o u</w>
mov e</w>
sp ort
an al
develop ment</w>
direct or</w>
castig at</w>
thir d</w>
vot e</w>
orig in
au str
T V</w>
er t</w>
war ds</w>
import anta</w>
Austral ian</w>
con struct
int amp
or ia</w>
asig ur
ch elt
un t</w>
tr at
ro l</w>
inv olv
par lament
ation ala</w>
ur al</w>
our s</w>
in ica</w>
in i
con v
st and</w>
ul a</w>
Wil li
se x</w>
on a</w>
id ence</w>
Amer ican</w>
ag ent
Lond on</w>
cl ar</w>
r un</w>
d id
abil ity</w>
d ate</w>
S outh</w>
kno wn</w>
compan ia</w>
cons il
produc t
inform atii</w>
art ic
de ath</w>
pi et
instr um
prot e
ter men</w>
I ra
I S</w>
jo c</w>
inc al
saptam ani</w>
er ing</w>
2 1</w>
v ech
cour se</w>
int egr
of fici
sup port
pu r</w>
Ch ar
Un iunii</w>
2 2</w>
med i
g n
s ever
sp er
il y</w>
c ant
f ree</w>
demon str
com ing</w>
P al
int ot
u sa</w>
cons ider</w>
intot deauna</w>
van z
inse amna</w>
M al
. co
pre c
an ch
N ational</w>
19 8
dis c
did n</w>
as ked</w>
D on
Camer on</w>
b le</w>
fur ther</w>
Fr iday</w>
int oar
nici o</w>
l er</w>
Amer ica</w>
sm all</w>
nost ru</w>
pre sa</w>
st e
1 9</w>
b ol
c asa</w>
5 00</w>
tim es</w>
al low
cuv ant</w>
ot e</w>
ve hic
ag ue</w>
H e
perm ite</w>
at uri</w>
al iment
sp un</w>
pri or
jum atate</w>
Is ra
ful l</w>
dr a</w>
aj uta</w>
to g
impl ic
s ot
r ole</w>
w ent</w>
h ouse</w>
cour t</w>
follow ing</w>
co unt
sch ool</w>
S und
o asa</w>
Europ ene</w>
Sy r
re str
h er
cur s</w>
ta in
leg e</w>
re tr
ac olo</w>
tr av
of it
adaug at</w>
imp act</w>
M il
sever al</w>
M or
ex empl
pro gres
anno unc
fo od</w>
su bl
tog ether</w>
v oi</w>
el ect
agre ement</w>
mon di
rest e</w>
min ist
k y</w>
ar r
of era</w>
memb ers</w>
oc up
res t</w>
os s
1 .
s aying</w>
ab l
miliar de</w>
pos ibil
dumne avo
dumneavo astra</w>
imag in
sp ok
raport ul</w>
anc es</w>
l at
extre m</w>
urm eaza</w>
e fort
ch all
ant ed</w>
H ouse</w>
7 0</w>
in apoi</w>
fa il
crest erea</w>
C ity</w>
v est
port un
de fin
mas uri</w>
d ol
sh o
p m</w>
t om
De part
vin eri</w>
person al</w>
situ ation</w>
deb ate</w>
ur or</w>
S en
com es</w>
cap ac
Wor ld</w>
me asu
a x
se par
col eg
ju st
ef for
exp ected</w>
per ic
op portun
Brit ish</w>
m er</w>
L on
T wit
fo ot
au d
Ang el
Sund ay</w>
c ar</w>
Pa ul</w>
mi j
New s</w>
num ara</w>
S ec
d ou
dum inica</w>
w el
ex tin
bour ne</w>
supr av
ro w
at ice</w>
est im
p ens
an i
cresc ut</w>
Twit ter</w>
perso ana</w>
ot i
d one</w>
cr iza</w>
f ig
afac eri</w>
of ten</w>
des fas
R us
1 8
op ort
vi ew
en ough</w>
ain ing</w>
on d</w>
proc ess</w>
ca z</w>
punct e</w>
Parlament ul</w>
A f
p ay</w>
rez e</w>
pr is
p ost</w>
ciud a</w>
citiz ens</w>
ju dec
quest ion</w>
Rep ubl
bl oc
Mon day</w>
te e</w>
J ul
P er
h ard</w>
sch im
2 3</w>
Geor ge</w>
r os
campa ign</w>
it ie</w>
Dem ocr
w ater</w>
t arg
vir on
infl u
ta x</w>
ch arg
r u
re co
is ation</w>
c all</w>
i red</w>
N or
il a</w>
if e</w>
al ele</w>
mit h</w>
Mel bourne</w>
y s
res s</w>
fund ament
R om
h it</w>
fo stul</w>
ter or
europ ene</w>
indiv id
tut uror</w>
b ani</w>
m ana</w>
init ial</w>
gr up</w>
cer ut</w>
m .</w>
aplic are</w>
i era</w>
fur n
J ap
t i</w>
offici als</w>
er y</w>
t arii</w>
reduc e</w>
ne w
g ent
st re
for c
d le</w>
val u
ain ed</w>
ne ws</w>
al d</w>
li ber
priv ate</w>
lup t
ex erc
inter net</w>
gas it</w>
at ure</w>
l em
ac asa</w>
C ali
u red</w>
ant ii</w>
sal v
A t
stat ement</w>
e ia</w>
A c
n s</w>
au di
iz e</w>
ke ep</w>
200 8</w>
a er
intamp la</w>
cap ital</w>
bill ion</w>
do ing</w>
re prezent
me ans</w>
de l</w>
d imin
W ed
ibil ity</w>
r ate</w>
li er</w>
Cali for
sec ret
pre vi
cl ub
hop e</w>
dif fic
play ers</w>
art er</w>
nim ic</w>
doc t
l l</w>
vi itor</w>
contrib ut
am end
ar d
desc oper
P ro
fo re
curren t</w>
servic es</w>
k es</w>
vorb a</w>
mom entul</w>
S atur
for ward</w>
point s</w>
desp ite</w>
2 7</w>
ar est
cons ol
Th urs
con st
I tal
ator s</w>
i ke</w>
loo king</w>
ter m</w>
cl ose</w>
un o
probl em</w>
f ect</w>
l ive</w>
num it</w>
su fer
de stul</w>
e es</w>
.co m</w>
rel ig
im ent</w>
u ally</w>
O c
n av
tot al</w>
issu es</w>
Tu esday</w>
Thurs day</w>
En g
el imin
vede a</w>
jo i</w>
ot s</w>
Min ister</w>
Wed n
An dre
Lon dra</w>
s et
compan ies</w>
M art
o re
ach iev
N e
ist ii</w>
econom y</w>
av ert
di feren
Califor nia</w>
n on</w>
str ong</w>
memb er</w>
Afr ica</w>
201 6</w>
contr ol
. m.</w>
progr am</w>
Wedn esday</w>
measu res</w>
acest ora</w>
F ace
pre mi
ultim ele</w>
trans form
ai ba</w>
rap id</w>
op t</w>
alt i</w>
iv es</w>
att ack</w>
be h
oth ers</w>
des ig
th ought</w>
san at
is c
sect or</w>
ec h</w>
z a</w>
it ional</w>
ens ure</w>
d ue</w>
ne eds</w>
al most</w>
S mith</w>
ez i</w>
cu st
Ch in
at er
Face book</w>
l ans
Satur day</w>
secur itate</w>
s amb
ens ive</w>
publ ice</w>
iv ul</w>
d ator
drept urile</w>
rid ic
intere s
T re
samb ata</w>
M us
pres ident</w>
cons ult
domen iul</w>
erc uri</w>
ag ed</w>
grow th</w>
rasp uns</w>
ultim ul</w>
C urt
app ear
n ers</w>
lu a</w>
pot ential</w>
it er
op en</w>
pro pri
ma gaz
bu get
ert y</w>
v et
telev iz
mart i</w>
ist an</w>
w a
lucr uri</w>
exempl u</w>
ati t</w>
und a</w>
acest uia</w>
ingrij or
punct ul</w>
cond us</w>
oc k
m uz
no v
it ive</w>
kill ed</w>
fem ei</w>
re fl
W est
io s</w>
p ag
mi ercuri</w>
ov e</w>
neg oci
num ar</w>
can not</w>
beh ind</w>
sign ific
lar ge</w>
transp ort
ear lier</w>
ris k</w>
for ce</w>
g ir
E x
W est</w>
lun g</w>
al leg
proces ul</w>
am ed</w>
ram ane</w>
ext ern
oras ul</w>
tr ai
teh nolog
em is
imag ine</w>
industr y</w>
es p
amen int
jo b</w>
el iber
e al
re act
le ad</w>
pos ibil</w>
iv ed</w>
C am
pierd ut</w>
pl us</w>
ug g
r un
d on
ben ef
mur it</w>
ro om</w>
ult s</w>
author ities</w>
w al
al b
en viron
i ect</w>
wee ks</w>
enc es</w>
as h</w>
ib ile</w>
pers on</w>
ministr ul</w>
ro w</w>
&apos; ll</w>
intre pr
sc azut</w>
fe el</w>
resear ch</w>
w ood</w>
tere n</w>
is b
al ist</w>
di rect</w>
res ult</w>
2 6</w>
pre v
w w
af ara</w>
it ii</w>
prot est
ofer it</w>
pl ans</w>
G oo
2 ,
i re
a de
or ic
m n</w>
cel ebr
b al</w>
s of
m ic</w>
sel ves</w>
milit ary</w>
ing e</w>
ra ther</w>
guvern ului</w>
de part
z il
prom ov
hel d</w>
ast e</w>
c ost</w>
st er</w>
P l
ven it
ed ly</w>
are as</w>
su pl
ri ed</w>
num arul</w>
ur mar
ultim a</w>
major itatea</w>
serv ice</w>
ez a</w>
Eng land</w>
B er
2 8</w>
us h
gro und</w>
dom n
famil ia</w>
he ad
im igr
ultim ii</w>
th em
em erg
S w
castig a</w>
ta il
tr y</w>
itor ii</w>
pozit ie</w>
st ar
h and
com ent
cum par
iz are</w>
out side</w>
a pr
A m
or ului</w>
ant ren
om ului</w>
nec ess
juc at</w>
econom ica</w>
gre u</w>
asig ura</w>
report ed</w>
a king</w>
olut ion</w>
impl ement
D ec
t ly</w>
spect ac
e ded</w>
fron t</w>
ne ar</w>
our ces</w>
tr ade</w>
spok es
dr um
oc h
s it</w>
int ampl
ob serv
ap s</w>
coun t</w>
Univers ity</w>
num er
bud get</w>
b ul
l ab
al though</w>
agric ult
comm on</w>
incre ase</w>
i ii</w>
N ov
arg um
m id
S tre
neg oti
semn ific
l ight</w>
a p</w>
Joh n
problem s</w>
difer ite</w>
t an
l ate</w>
ord ul</w>
aj ul</w>
V ict
h ours</w>
lib ert
su d</w>
europ ean</w>
polit ie</w>
feren ce</w>
direct orul</w>
st ar</w>
l ong
t y
get ting</w>
th ern</w>
m em
0 ,000</w>
tr ib
lin es</w>
fac il
l ost</w>
supl iment
p il
ing ly</w>
p une</w>
h or
at elor</w>
ur aj
sc ol
mo ther</w>
al ului</w>
at ilor</w>
de parte</w>
adev ar</w>
tr ying</w>
8 0</w>
ent ion</w>
play ed</w>
feder al</w>
as k</w>
w ar</w>
dezvolt are</w>
D le</w>
b igg
re al
s ens
gr ad
an aliz
intere st
eas i</w>
al ong</w>
l ad
ch ief</w>
ince pe</w>
an k
c ou
san atate</w>
particul arly</w>
to ata</w>
ess es</w>
part id
declar atie</w>
t arile</w>
it are</w>
inche iat</w>
aj uns</w>
sh ire</w>
autor itatile</w>
M ur
m unc
el ection</w>
G al
p ati
2 .
Chr is</w>
tar z
fac em</w>
er au</w>
ul d
incre as
provi de</w>
sc urt</w>
e k</w>
ati ves</w>
fr anc
sug gest
amer ican</w>
rid icat</w>
resp ect</w>
m es
cop iii</w>
h and</w>
ch ing</w>
itat ilor</w>
compl et</w>
jur ul</w>
e er</w>
im prov
ser ies</w>
L u
or ie</w>
part ener
incerc at</w>
af t</w>
im ed
particul ar</w>
terr or
schim b</w>
s pre</w>
fapt ului</w>
at al</w>
&apos; d</w>
h ist
stud y</w>
as it</w>
ch o
ific at</w>
s ea</w>
est abl
econom ice</w>
on ia</w>
part i</w>
contr act
c ere</w>
e fic
h osp
wor kers</w>
sistem ul</w>
pozit ia</w>
pr os
ion ale</w>
noapt ea</w>
en se</w>
I S
N orth</w>
20 0</w>
per spect
inch is
b it</w>
art ea</w>
an g</w>
L os</w>
t ab
ment al</w>
de put
F L</w>
res s
as c
intere st</w>
ament e</w>
l anga</w>
S tr
sup pl
e x</w>
tr af
di ed</w>
l imb
le ader</w>
execut iv</w>
ap h
p ic
h u
ir ii</w>
iz area</w>
sist em</w>
simil ar</w>
i ans</w>
crit ic
l ement
cre de</w>
re form
o il</w>
n et
m ama</w>
Consil iului</w>
w anted</w>
s os
Th om
su ficient</w>
Intern ational</w>
commun ity</w>
Lab our</w>
com b
V al
Russ ia</w>
af f</w>
tel ef
ion er</w>
r au</w>
tarz iu</w>
ob s</w>
prod use</w>
und s</w>
i ata</w>
act iune</w>
exam ple</w>
p us</w>
s .</w>
ref uz
sub st
ad m
drep turilor</w>
ur at</w>
de tal
W al
chil d</w>
do reste</w>
situ atia</w>
le ar
L ib
3 5</w>
sapt e</w>
it orul</w>
sez on</w>
Parlament ului</w>
h on
memb ru</w>
2 9</w>
sc op
disc uss
st op</w>
st or
ific a</w>
reg lement
Ir an</w>
im ente</w>
ess ion</w>
B ul
ip s</w>
pres s</w>
me eting</w>
start ed</w>
e i
suc ces</w>
of eri</w>
est iv
l ig
b anc
mart ie</w>
t on
intampl at</w>
dor it</w>
s at
e h
ail y</w>
ap art
s ure</w>
ful ly</w>
F ren
Mon di
R ich
mon itor
v it
austr ali
expl o
acest or</w>
uld n</w>
S ir
in do
M ay</w>
mat ter</w>
d in
y n
m ica</w>
inst e
n ord</w>
f al
f ight</w>
rez er
retur n</w>
intr uc
alt ern
rest aur
9 0</w>
Fr anc
n ame</w>
vi et
involv ed</w>
fav oarea</w>
av and</w>
soci ale</w>
et ul</w>
S an</w>
att emp
min utes</w>
drept ul</w>
M s</w>
actu ally</w>
respons abil
continu are</w>
i erea</w>
0 s</w>
compl et
anunt at</w>
Su d</w>
ai m</w>
Ind ia</w>
Mar ch</w>
Angel es</w>
transp ort</w>
B al
z e</w>
oar ele</w>
il eg
transp ar
ser ious</w>
g ol
vot at</w>
e ata</w>
cent rul</w>
intruc at</w>
asp ect
term s</w>
S e
s even</w>
cred it</w>
h a
f isc
re le</w>
ch es</w>
g es</w>
publ icat</w>
f ire</w>
i ded</w>
gr ou
con cl
ide rea</w>
cin eva</w>
rul es</w>
cam era</w>
i fied</w>
ar ului</w>
ent ele</w>
hist ory</w>
report s</w>
av ail
p ay
contr over
re t</w>
k ind</w>
show s</w>
mo artea</w>
mo del</w>
tr ag
D r
b ai
f lo
obtin ut</w>
cl ient
iun ie</w>
membr i</w>
diffic ult</w>
Brit ain</w>
mult a</w>
dimin eata</w>
financi are</w>
acc ess</w>
tech nolog
publ ished</w>
ific e</w>
zi ua</w>
t est</w>
play ing</w>
im part
noapt e</w>
S al
bo g
l ist
razbo i</w>
Fr ance</w>
propos al</w>
ent i</w>
sp atele</w>
proc es</w>
us or</w>
esp ec
canc er</w>
nucle ar</w>
l in</w>
our ce</w>
ch in
J une</w>
vot ed</w>
ap er</w>
ur b
in jur
act ive</w>
fa ther</w>
as n</w>
sh ot</w>
Fren ch</w>
io are</w>
N A
lov e</w>
intel eg
rec unos
for ta</w>
chelt ui
Ph il
Pet er</w>
ne eded</w>
offic e</w>
reg ion</w>
M er
prez enta</w>
ion a</w>
1 4
st aff</w>
asist enta</w>
m ort
av er
rev en
er at</w>
1 5
wh ole</w>
wee k
m ic
fav or
pr ice</w>
ep h
Mar k</w>
mo bil
ap el</w>
import ante</w>
oras ului</w>
barb at</w>
d us</w>
d ig
it ia</w>
C al
19 7
i es
W ar
cons id
every one</w>
polit ice</w>
dom in
em ot
clim ate</w>
e ase</w>
preg at
dis pon
qu e</w>
iz ed</w>
aut om
perso anele</w>
3 1</w>
Consil iul</w>
ear ca</w>
inc earca</w>
ad uce</w>
C up</w>
sur v
cond amn
ex cl
es n</w>
grup ul</w>
bo ard</w>
m ii</w>
intrepr ind
announc ed</w>
nu mai</w>
at ac</w>
ma kes</w>
grou ps</w>
b and</w>
ro ad</w>
it ud
g e
Co urt</w>
fi int
ec i</w>
iv ely</w>
buil ding</w>
trebu it</w>
do esn</w>
re mar
espec ially</w>
Scot land</w>
g er
ism ul</w>
atent ia</w>
Ap ple</w>
i um</w>
tre at
ben efic
m ess
ur y</w>
mer ge</w>
a eri
20 20</w>
ex prim
pot ent
ol s</w>
inc ident</w>
ati v
E r
pro pr
g and
sh ort</w>
un ge</w>
it ele</w>
rep e
l ie</w>
J os
R os
fere d</w>
pres ent</w>
ob is
mor ning</w>
cre z
problem ele</w>
F l
condit ions</w>
Qu e
par int
ut ers</w>
Stre et</w>
sco ala</w>
acc es
barb ati</w>
Scot t</w>
f er</w>
al low</w>
g ed</w>
fin ala</w>
r and
br ing</w>
y a</w>
no thing</w>
de le</w>
urm at
cr uc
med iu</w>
opportun ity</w>
ord on
dec v
um p</w>
s ed
ar unc
o ara</w>
consider are</w>
ic ip
d lui</w>
il ie</w>
dr ag
pro ve</w>
or as</w>
h im
tur n</w>
st ory</w>
con centr
cal ator
s anc
ofici alii</w>
ina int
ident ial</w>
descr ib
d am
no ul</w>
uc tur
it ori</w>
su s</w>
op s</w>
ris c
st iu</w>
ain s</w>
pl ec
iz eaza</w>
us es</w>
cre ate</w>
cunos cut</w>
par ents</w>
th y</w>
inc uraj
s aw</w>
gr an
rele ased</w>
mas ina</w>
G ol
com and
v ec
sprij in</w>
ac ked</w>
le ave</w>
to wards</w>
ace ea</w>
in ov
ere aza</w>
put eti</w>
l ament</w>
m ul
pre par
avail able</w>
activ itatea</w>
inste ad</w>
ion ed</w>
crez ut</w>
prof ess
Univers itatea</w>
compan iei</w>
efect u
mat ch</w>
it ul</w>
200 7</w>
ach ed</w>
Gr oup</w>
h old</w>
Andre w</w>
stand ing</w>
perio d</w>
rec ently</w>
Cent r
se zon
oam enilor</w>
d ere</w>
An gl
prov o
am o
p an
s av
u g</w>
uc k</w>
feme ile</w>
i ul
acord at</w>
sp ati
rev iz
r ata</w>
ion ala</w>
elect or
utiliz area</w>
necess ary</w>
ram as</w>
ren unt
chang es</w>
nim eni</w>
e apta</w>
apr ilie</w>
er ship</w>
a head</w>
B ush</w>
intr at</w>
g ames</w>
sh are</w>
sp un
rez olut
j obs</w>
sing le</w>
m ut
putern ic</w>
liv ing</w>
acuz at</w>
ca p</w>
a des
uc is</w>
execut ive</w>
miss ion</w>
di an</w>
pr ices</w>
curren tly</w>
str i</w>
tot usi</w>
4 5</w>
ma in</w>
k a</w>
Syr ia</w>
inter vi
b lo
ament ului</w>
r ac
un ded</w>
sanc t
wh ose</w>
n ul</w>
st ren
um e</w>
offic ial</w>
S A</w>
iv ele</w>
P re
apro b
e ight</w>
aj ung
G rec
b ack
fore ign</w>
pr in
ent ei</w>
Cl ar
pac ient
y an</w>
i ple</w>
ad re
att acks</w>
rasp un
dro g
om s</w>
A pr
acest eia</w>
Ger man
ber g</w>
met ri</w>
lung ul</w>
sp ort</w>
i eri</w>
l ea</w>
y n</w>
id ents</w>
id ing</w>
ed ge</w>
t ip
ast eapta</w>
D om
saf ety</w>
restr ict
fotograf ie</w>
cr ime</w>
op o
Bro wn</w>
prot ection</w>
sing ura</w>
extre m
bl ack</w>
Apr il</w>
l ider
strateg y</w>
experi ence</w>
Re uters</w>
it h</w>
aut o
de tin
stren g
aprop iere</w>
st ep</w>
qu ite</w>
n ationale</w>
id s</w>
distr ib
ades ea</w>
manag er</w>
m it</w>
Commiss ioner</w>
John son</w>
ac oper
r om
ab sol
in alt</w>
v al</w>
sti inta</w>
b att
N ord</w>
ut h</w>
aj e</w>
rel ev
th ous
hear d</w>
un at</w>
m y
lucr urile</w>
St atele</w>
ish ing</w>
cur sa</w>
sprijin ul</w>
reco gn
ic l
ide a</w>
him self</w>
G ar
wr ote</w>
cov ered</w>
no stri</w>
st ates</w>
act iuni</w>
A sh
p .m.</w>
iul ie</w>
every thing</w>
3 ,
res olution</w>
signific ant</w>
id ge</w>
col ect
ult erior</w>
ev ent</w>
av oc
i ub
Rus ia</w>
st age</w>
E m
se qu
p aid</w>
them selves</w>
imbunat ati
se ful</w>
subl ini
M is
se f</w>
in es</w>
cooper ation</w>
Mart in</w>
me an
dezvolt area</w>
un ivers
liv es</w>
ev idence</w>
Scot ia</w>
Mr s</w>
Can ada</w>
u ale</w>
T imes</w>
cons ec
st im
imp us
deciz ia</w>
ot ing</w>
m ers</w>
cu ren
wr iting</w>
ic ans</w>
mec i</w>
so on</w>
prod us
re un
pre sup
prim ele</w>
re ad</w>
cou ple</w>
realiz at</w>
chest iune</w>
con n
rep ubl
ac ea</w>
res ults</w>
re present
ar riv
wor ks</w>
succ ess
cer tain</w>
polit ic
M ac
ev ident</w>
u ie</w>
ob tine</w>
o ul</w>
ant ei</w>
to wn</w>
ide s</w>
afirm a</w>
op ped</w>
o pr
Mr .</w>
ac count</w>
ev e</w>
g an</w>
fri end</w>
if y</w>
cent re</w>
consol id
Jul y</w>
produc ts</w>
appro ach</w>
th er
w er</w>
princip al</w>
mov ed</w>
G overn
ant erior</w>
ol a</w>
g in
popul ar</w>
a g</w>
fer ic
it ch
fav our</w>
p ach
m asa</w>
F or
os eb
beg an</w>
prote j
fri ends</w>
in fiint
s qu
consid era</w>
v s.</w>
ro und</w>
ai de</w>
press ure</w>
con fer
niv elul</w>
M a
Don ald</w>
id ar
re as
co ach</w>
some one</w>
intel es</w>
cop iilor</w>
min ister</w>
acord ul</w>
C amp
w ife</w>
rece ived</w>
v ul
ne arly</w>
e c</w>
y l
lead ers</w>
confl ict</w>
C ro
h am
dis put
viol ence</w>
V er
mul time</w>
lead ing</w>
experi enta</w>
mo dific
conduc e</w>
tr aining</w>
soci ala</w>
aj unge</w>
er ry</w>
li ber</w>
i anu
w o
v in</w>
st anga</w>
mondi al</w>
med ical</w>
oport un
san sa</w>
g le</w>
y le</w>
s ent</w>
Angl ia</w>
Isl amic</w>
long er</w>
any thing</w>
o v</w>
d ar
su d
um b
cas es</w>
Willi ams</w>
I I</w>
pl om
play er</w>
refl ect
luc reaza</w>
ob ject
cost s</w>
st ie</w>
run ning</w>
alt ii</w>
in ile</w>
vi itoare</w>
M ex
S and
t en
min or
ianu arie</w>
feme ie</w>
spec i
f arm
re ason</w>
priv inta</w>
is ions</w>
bigg est</w>
vech i</w>
R es
offic ers</w>
ment in
19 6
tot ul</w>
im medi
d ang
pro ject</w>
g un
Con gres
r olul</w>
c ativa</w>
energ ie</w>
lov it</w>
Sir ia</w>
F in
descoper it</w>
gu e</w>
se ara</w>
Un it</w>
ace easi</w>
bec ame</w>
di plom
u es</w>
act er
E g
con cer
in o</w>
gr av
effor ts</w>
rel ated</w>
p ul
n ice</w>
l ist</w>
J anu
augh ter</w>
F ar
pos ed</w>
a decv
Janu ary</w>
ism ului</w>
int ors</w>
U k
c y
A del
ind u</w>
F eder
l ista</w>
stud ents</w>
low er</w>
m et</w>
energ et
ch ance</w>
ur i
controver s
J ones</w>
str a
ab ove</w>
investig ation</w>
ap l
med iul</w>
mo del
cust om
presed inta</w>
int reg
po ol</w>
lip sa</w>
p al
T ex
mas s</w>
unc h</w>
ed om</w>
he av
cl ad
com prom
high er</w>
val oare</w>
for ces</w>
f all</w>
M os
Goo gle</w>
ar ma</w>
prob ably</w>
gu ver
rema in</w>
sc and
sc ena</w>
civ il</w>
dec embrie</w>
infr astr
r an</w>
de oseb
educ ation</w>
ex cel
ne igh
att ention</w>
b urg
hu ge</w>
i ef
exc ept
concern s</w>
jo aca</w>
dis par
fa ir
pr intr</w>
f ab
imed iat</w>
T ony</w>
mot iv</w>
invest ment</w>
ant er
spec ific</w>
en cour
H am
cir cum
off er</w>
le av
op h
manag ement</w>
ur ing</w>
ad us</w>
fic ial</w>
A P</w>
oc az
u z</w>
a ther</w>
centr al</w>
1 6
fin ally</w>
prezent at</w>
chall eng
respon se</w>
fir m</w>
se y</w>
O f
ment ionat</w>
Russ ian</w>
S im
ion area</w>
Par k</w>
ph one</w>
conduc ere</w>
u ita</w>
wor ds</w>
employ ment</w>
ap point
ex tr
Dec ember</w>
polit iei</w>
el i</w>
Com mit
sc re
folos it</w>
f all
chest er</w>
hosp ital</w>
f ans</w>
no w
Chin ese</w>
qu ality</w>
sp ent</w>
v eti</w>
E v
tur ned</w>
il le</w>
n as
1 7
3 00</w>
ill s</w>
rema ins</w>
E ast</w>
dis crimin
in king</w>
rec uno
vol unt
th ank</w>
polit ic</w>
rand ul</w>
ion are</w>
desch is</w>
er r
comp ort
T om</w>
urg enta</w>
pl in
if t</w>
t ip</w>
st on</w>
c ale</w>
Commit tee</w>
m ele</w>
go al</w>
w ide</w>
m os
sc en
as oci
Adel aide</w>
it ura</w>
a des</w>
t i
v ine</w>
inc et
aver age</w>
minist ru</w>
previ ous</w>
it self</w>
polit ici
Gre ece</w>
multum esc</w>
sig ur</w>
tit l
phot o</w>
d vs.</w>
S t</w>
tal k</w>
europ eana</w>
inter z
limb a</w>
famil ies</w>
f ast</w>
sal ar
iun ilor</w>
susp ect
stat ului</w>
sex ual</w>
co rect</w>
In ter
igh ting</w>
qu ick
W at
refug i
cov er</w>
wh ite</w>
sol idar
lat est</w>
l and
Tex as</w>
et ele</w>
servic ii</w>
se pt
quest ions</w>
G ener
or ilor</w>
inchis oare</w>
P ort
f ant
fort ei</w>
ion eze</w>
ep is
Man chester</w>
exam in
ar atat</w>
p es
vorb it</w>
bre ak</w>
tre ilea</w>
fr um
ag ree</w>
i er
fe br
cur and</w>
cont act</w>
ast er</w>
ev ent
en ge</w>
an ilor</w>
sc ient
act or</w>
week end</w>
thous ands</w>
As ia</w>
mec i
el abor
ass ist
ed a</w>
IS IS</w>
fund ing</w>
bor der</w>
u irea</w>
on ic</w>
im ens
do w
cas ator
me et</w>
ins ide</w>
m ac
sept embrie</w>
D r</w>
st iri</w>
ut ul</w>
s ens</w>
Vict oria</w>
t ii</w>
ed y</w>
ion ul</w>
iver sit
N o
ist ic</w>
victim s</w>
incre dere</w>
car eer</w>
Par lament</w>
is es</w>
J ust
ch ec
n ast
sing ur</w>
guver n</w>
co al
min d</w>
de tail
forc ed</w>
m ed</w>
anum ite</w>
Mad am</w>
solic it
nici un</w>
ic ation</w>
al co
r ise</w>
Isra el</w>
v oc
l ect
gre ater</w>
at ica</w>
soci et
g ave</w>
v ice</w>
ban k</w>
rel ation
B ank</w>
an elor</w>
ma y
de scris</w>
wor ked</w>
dr am
cat eg
any one</w>
t ell</w>
major ity</w>
amb ele</w>
r ut
pat r
m en
re feren
c entru</w>
simpl y</w>
sen ior</w>
cop il</w>
dre apta</w>
acc ident</w>
it u
publ ica</w>
om in
compan ie</w>
il ib
str ugg
situ atie</w>
happ ened</w>
W e
oper atiun
n ic</w>
mark ets</w>
no i
natur al</w>
gu ar
sen se</w>
g a</w>
av ant
televiz iune</w>
oc c
spokes man</w>
com bin
Pr ime</w>
h aps</w>
vet er
claim s</w>
o ficial</w>
St eph
qu arter</w>
br ought</w>
u f
Fr anta</w>
Curt ea</w>
pati ents</w>
sp ace</w>
fer ing</w>
ar rest
polic ies</w>
dov ed
di al
M ic
S ept
tak es</w>
ator y</w>
int ra</w>
b ad</w>
ch ers</w>
foc us</w>
A ir
norm al</w>
Govern ment</w>
ick et</w>
prim i</w>
dec is</w>
Sept ember</w>
per haps</w>
B en</w>
reduc erea</w>
re view</w>
ere n
im migr
produc tion</w>
ajut or</w>
famil ie</w>
l id
servic iile</w>
l oss</w>
rid ica</w>
membr ii</w>
ech ilib
A C
pos itive</w>
3 .
stat elor</w>
un i
r ace</w>
hear t</w>
Le ague</w>
M id
sect orul</w>
effect ive</w>
caz uri</w>
ati st
z er
im pr
N et
d imens
c ine</w>
v ig
ur ii</w>
ef ul</w>
P ak
niv el
grow ing</w>
pl as
i ate</w>
ke ep
ific are</w>
dez val
tem per
cl early</w>
fel t</w>
loc ale</w>
noi embrie</w>
int ens
is on</w>
Wh ite</w>
intoar ce</w>
prof it</w>
in h
en jo
T el
r as
n es
g en</w>
stat ul</w>
i h
ob ic
i aza</w>
est er
exp ect
act ions</w>
m p
Pres ed
auz it</w>
pro iect</w>
ast ic</w>
w asn</w>
u ary</w>
im age</w>
ei ther</w>
dest in
p as</w>
I ma
famil iei</w>
gr ave</w>
feme ilor</w>
char ge</w>
num e</w>
w ants</w>
suprav eg
fi ul</w>
show ed</w>
al aturi</w>
legisl ation</w>
d ivers
rap o
independ ent</w>
fund s</w>
sch o
vul ner
contr act</w>
ut in</w>
dor im</w>
al itatea</w>
ant ly</w>
v ot</w>
se ems</w>
cur s
putern ica</w>
sc ad
S ar
b ab
K o
comis ar</w>
amb it
la un
w orth</w>
v ac
mod ern
Rob ert</w>
r ug
echip ei</w>
r ates</w>
sp or
Rich ard</w>
confl ict
happ y</w>
ma int
Ger many</w>
st ep
A le
treat ment</w>
rev eal
ific area</w>
res ources</w>
ac count
z one</w>
per man
or ient
A ug
vis it</w>
k o</w>
viet ii</w>
foot ball</w>
et h</w>
ac king</w>
As soci
O l
3 2</w>
di es</w>
ou d</w>
inde part
Tr ump</w>
wel come</w>
ap prov
et ed</w>
a er</w>
Gr up
under stand</w>
opo zit
S N
3 3</w>
at y</w>
am ant</w>
intreb at</w>
desfas ur
af ter
ag ing</w>
proiect ul</w>
h y
gr at
Nov ember</w>
io ase</w>
er ie</w>
Ar ab
rec ut</w>
end a</w>
L ou
ins ist
cal ea</w>
sim t
st ad
3 0
studi u</w>
de ad</w>
t atal</w>
quick ly</w>
sh ort
am e
reg ional</w>
infrastr uct
clim atice</w>
ap pe
sum mer</w>
hot el</w>
v er</w>
H er
bor n</w>
describ ed</w>
progres s</w>
h und
T or
Can ber
de z</w>
crest e</w>
g as</w>
pr ab
munc ii</w>
200 6</w>
ak er</w>
O N
i ana</w>
d ings</w>
n atiun
inform at</w>
polit icii</w>
phot ogr
in f
3 4</w>
tur ne
technolog y</w>
b ed</w>
ject s</w>
perform ance</w>
t op
5 5</w>
sc ene</w>
financ iar</w>
G l
B en
he al
a ded</w>
ab and
Depart ment</w>
ex press
l i</w>
ch amp
b it
dr um</w>
pre fer
bec om
giv ing</w>
incre di
we b
en ess</w>
cel ui</w>
appear ed</w>
a int
m ean</w>
D ar
funct ie</w>
mar k</w>
i g</w>
con stitut
ic o</w>
g asi</w>
inter vent
ov ic</w>
b ile</w>
sar ac
n ine</w>
jur id
er ia</w>
u arie</w>
c ia</w>
febr uarie</w>
h ous
tr i
neces are</w>
tain ly</w>
cum p
. &apos;</w>
part id</w>
mit ted</w>
pre m
st ay</w>
d ly</w>
str ada</w>
firm a</w>
succ ess</w>
br ie</w>
E ur
re li
cer tainly</w>
inclu ded</w>
S aud
tom brie</w>
K ar
oc tombrie</w>
dr ug</w>
an j
agre ed</w>
clos ed</w>
suprav iet
mus ic</w>
c ab
sal es</w>
s ond
ar me</w>
even iment
atent ie</w>
r it
cop il
compet ition</w>
con ference</w>
con form
it ar</w>
viz ita</w>
i el
as s</w>
fre edom</w>
impr um
buil d</w>
val ue</w>
D aily</w>
Di rect
allow ed</w>
deciz ie</w>
neces ar</w>
St eve</w>
vict orie</w>
c ause</w>
incre ased</w>
ch a
lev els</w>
Sec ur
intern ationale</w>
efort urile</w>
sp ending</w>
serv ici
pov est
in n
put ere</w>
cl asa</w>
str ong
produc e</w>
re n</w>
ach ing</w>
sk i</w>
Canber ra</w>
com bat
apar ut</w>
re ach</w>
to ber</w>
J u
stand ar
per fect</w>
Oc tober</w>
r at
n ation
n ation</w>
g ets</w>
0 .
L i
F ebr
ant icip
Europ ei</w>
en di
f estiv
as ad
u el</w>
F A</w>
Febr uary</w>
soci ety</w>
er ate</w>
cal ls</w>
r us
tr ue</w>
e sa</w>
wr ong</w>
ac qu
civ il
en h
con vers
ec olog
n omin
plac ed</w>
d aughter</w>
z b
l ack</w>
il i
c row
ev ents</w>
Al ex
ad apt
O p
ion ate</w>
fundament al</w>
vi itorul</w>
act iunile</w>
intaln it</w>
t ens
ob vi
au r</w>
A g
susp end
respons ibility</w>
Cr ac
et r
intern e</w>
an o</w>
pag ina</w>
in spir
guar ant
po ata</w>
fail ed</w>
acel a</w>
docum ent
loo d</w>
par asit</w>
bas is</w>
schimb a</w>
im prove</w>
com una</w>
pict ure</w>
scr is
com une</w>
mat eri
s in
rad io</w>
mo st
part ies</w>
fo st
dec ided</w>
os i</w>
stim ul
cor por
ch er</w>
scop ul</w>
g s</w>
sp er</w>
zil ei</w>
Ab bot
rezult atele</w>
M ag
Br isb
N ick</w>
wat ch</w>
cap at</w>
ir ile</w>
cu pl
Brisb ane</w>
op ening</w>
film ul</w>
efici enta</w>
sp o
tr ied</w>
c ept
min im
viz it
Br az
st oc
c if
aleg erile</w>
ad s</w>
cetat enilor</w>
b ers</w>
t ul</w>
th an
larg a</w>
L ig
sat is
prop erty</w>
z ator</w>
lung a</w>
T e
claim ed</w>
sub ject</w>
co resp
am an
v ara</w>
oo ds</w>
pros ecut
el ui</w>
adre sa</w>
negoti ations</w>
di ag
L a
tin eri</w>
fot bal</w>
Republ ican</w>
o x
for t</w>
r is</w>
crimin al</w>
cetat enii</w>
jo urn
im br
et ty</w>
con form</w>
Abbot t</w>
mem or
Tre aty</w>
N ig
fin aliz
industr ia</w>
ben efici
mot ive</w>
t ext</w>
ach iz
asp ect</w>
burg h</w>
Part y</w>
oo k</w>
cl ass
Thom as</w>
concern ed</w>
ca used</w>
l ant
car b
dev eni</w>
aj ele</w>
offic er</w>
ant ilor</w>
gr aba</w>
P e
b ar</w>
view s</w>
t ou
om ul</w>
institut ions</w>
k m</w>
al e
perm is</w>
un n
f air</w>
tin ut</w>
ra ised</w>
ass oci
muz ica</w>
circum st
g one</w>
chall enge</w>
N R
cont act
imp os
domen iu</w>
R oy
Ira q</w>
sc ur
c ro
tre ce</w>
Su pre
cl ar
str ain
re comm
popul ation</w>
amo unt</w>
compan ii</w>
schimb arile</w>
7 5</w>
ren t</w>
inc endi
augh t</w>
German ia</w>
ann ual</w>
d r</w>
pu sa</w>
lider ul</w>
B ur
stud ent</w>
o c</w>
Grec ia</w>
f iz
spec ul
d ura</w>
dific il</w>
dez e</w>
h ost
at ures</w>
K e
sim t</w>
ere le</w>
dem and</w>
C op
As s
intent ioneaza</w>
sur sa</w>
ic ul</w>
trim is</w>
mess age</w>
sot ia</w>
tal king</w>
D el
furn iz
d ers</w>
gar ant
g a
Gener al</w>
imp i
loo ked</w>
re r</w>
ter itor
depl in</w>
ex tra
4 ,
pass eng
Ch el
Scot t
de m</w>
dov ada</w>
reg ard</w>
polit ici</w>
lucr at</w>
cuv antul</w>
lov itura</w>
program ul</w>
aw are</w>
reveal ed</w>
individ ual</w>
compl ete</w>
v and
che ie</w>
car iera</w>
D ani
rele ase</w>
s pr
Or gan
G ra
t we
program me</w>
dezval uit</w>
0 ,
prod us</w>
to ur
dis pozit
charg ed</w>
h our</w>
e th
s ine</w>
is n</w>
dezbat ere</w>
ev it
hel ped</w>
go es</w>
charg es</w>
s mo
de fic
cercet are</w>
var f</w>
imagin ea</w>
spe ech</w>
cont ext</w>
busin esses</w>
S am</w>
ill ing</w>
el ess</w>
de a</w>
al elor</w>
pract ice</w>
piet ei</w>
extra ordin
respons ible</w>
meci uri</w>
trans fer
de i</w>
g ia</w>
grup ului</w>
k n
do amn
appro pri
iv er</w>
L is
wr it
sunt eti</w>
subst ant
ific ate</w>
enc ed</w>
um an</w>
M ill
cruc ial</w>
provi ded</w>
propr ia</w>
ar s</w>
fotograf ii</w>
pl es</w>
imp act
pas ag
democr atic</w>
et ului</w>
v ina</w>
indo iala</w>
inter view</w>
ab s
rep et
m ile</w>
som et
lans at</w>
financi ara</w>
arrest ed</w>
americ ani</w>
instrum ent</w>
mer g
larg est</w>
R a
sup ort
schimb are</w>
it ions</w>
dez valu
stand ards</w>
loc ului</w>
ol es
opin ion</w>
op position</w>
on ul</w>
i ent</w>
inde plin
4 00</w>
pro gre
in ing</w>
refuz at</w>
pris on</w>
part s</w>
Com mun
acc used</w>
Scott ish</w>
propos ed</w>
prec ed
republ ic
r ing</w>
li ons</w>
aug ust</w>
acc ident
B ill</w>
de red</w>
H ill
trim est
el ling</w>
st im</w>
is er
s n
chang ed</w>
mov ing</w>
ide ea</w>
in e
trav el</w>
econom ia</w>
3 6</w>
jur n
ar m</w>
t end
m ass
s le
s ource</w>
b n</w>
comerc iale</w>
capac itatea</w>
el ing</w>
C ap
col le
a ie</w>
cons ide
condit ii</w>
britan ic</w>
ur ul</w>
ban ii</w>
propun erea</w>
serv e</w>
Chel sea</w>
Willi am</w>
viol enta</w>
sum a</w>
sp ital</w>
resear chers</w>
h istor
win ning</w>
putern ice</w>
believ ed</w>
ab uz
exp ect</w>
im pres
P ac
dou b
conduc erea</w>
cheltui el
bu y</w>
tr ial</w>
obic ei</w>
u ite</w>
pos e</w>
ent er
peric ul
add ress</w>
thre at</w>
Tr at
M ike</w>
con curen
c ina</w>
P s</w>
aeri ene</w>
tot ii</w>
cal cul
con stit
tal ks</w>
ad res
C ub
F re
c area</w>
u ire</w>
cre area</w>
ub lic</w>
ar h
ang u
prot ect</w>
itt en</w>
effor t</w>
mus ul
h us
refer itoare</w>
intel ui</w>
det i</w>
uc k
proc ur
du ca</w>
Aug ust</w>
k il
scad ere</w>
initi ative</w>
on to</w>
arunc at</w>
ef fect</w>
deb t</w>
thr ough
supliment are</w>
at tr
op tim
SN P</w>
Con serv
leg ii</w>
a v</w>
sc ara</w>
S ir</w>
200 5</w>
prim e</w>
el im
s ute</w>
custom ers</w>
prop ort
pr o</w>
r ani</w>
inv at
i or
s h</w>
b ill</w>
K ing</w>
u im
saf e</w>
ex act</w>
C upa</w>
f ell</w>
Of fic
rap port
juc atori</w>
ame work</w>
pet rol</w>
cre ated</w>
f ighting</w>
m ist
sig n</w>
scho ols</w>
duc e</w>
consum ers</w>
sh ips</w>
in come</w>
ibil a</w>
K im</w>
anal y
Part id
camp ania</w>
el led</w>
Be ij
it ors</w>
con cent
u ala</w>
fig ures</w>
neg ative</w>
w .
D ay</w>
Jo e</w>
Tur key</w>
be y
somet imes</w>
happ en</w>
all s</w>
extern e</w>
rest ul</w>
excl us
L iber
re pl
desig ur</w>
ator ului</w>
s inc
pet recut</w>
c ert
n or</w>
es ent
intel ig
fl ex
S ou
perspect iva</w>
li es</w>
gent lem
ad y</w>
int ei</w>
relation ship</w>
ag ency</w>
ww w.
schimb at</w>
n amed</w>
fel low</w>
ag ra</w>
C E
y er</w>
rep t
re bel
p ace</w>
sust ain
expl oz
clas s</w>
trad itional</w>
io asa</w>
Ger man</w>
dom est
id ency</w>
lim it
through out</w>
st ic
ep ta</w>
confirm ed</w>
partid ului</w>
d a
spe aking</w>
m ei</w>
europ eni</w>
vict ory</w>
re comand
co asta</w>
environ ment</w>
sfar sit</w>
i pe</w>
cu prin
stand ard</w>
ex port
fac ute</w>
dec ide</w>
et t</w>
gar ia</w>
Dom n
ir a</w>
sec ret</w>
ament ele</w>
un e
G etty</w>
contr olul</w>
ban ks</w>
h ands</w>
scr ie</w>
r ay</w>
el se</w>
dev ast
sufer it</w>
b an</w>
drog uri</w>
set t
P I</w>
du re
Le e</w>
alt or</w>
al ian</w>
P o
ent ii</w>
car ried</w>
3 7</w>
intervi u</w>
ut i</w>
c ul</w>
fl u
t ack
loo ks</w>
S ing
y r
th ers</w>
ner ship</w>
sp era</w>
Ad am</w>
tre n
targ et</w>
concl uz
Pol ice</w>
conv ing
pre luat</w>
r ange</w>
fi u</w>
pl eas
ast ern</w>
t ent
av eti</w>
posibil itatea</w>
lad ies</w>
p ack
de d
trib un
add itional</w>
B ir
inregistr at</w>
in nov
in ning</w>
e ur</w>
ex act
F I
i ene</w>
cr iz
4 8</w>
B S</w>
est ul</w>
isl amic</w>
stit i</w>
refer a</w>
fol low</w>
am est
R yan</w>
K en
spe ak</w>
lo g
abord are</w>
bo y</w>
mo bile</w>
vede m</w>
inaint ea</w>
eas y</w>
exerc it
s ir
s es
magaz ine</w>
L iver
re me</w>
in struct
act er</w>
var ious</w>
in de</w>
V ir
3 8</w>
A FL</w>
v ad</w>
bro ad
stabil it</w>
er ful</w>
adopt ed</w>
c af
ug s</w>
po or</w>
ser i
ag r
sing urul</w>
z eci</w>
lin ia</w>
pret ty</w>
West ern</w>
rel and</w>
urm atorul</w>
Dani el</w>
lun ii</w>
L eg
ph ys
sar b
prof it
se ama</w>
dific ult
propos als</w>
am ag
H en
mot ivul</w>
d ie</w>
perso anelor</w>
scr i
inde ed</w>
v an</w>
obis nu
incer ca</w>
impl ica</w>
presed intelui</w>
ver t
continu ed</w>
P utin</w>
r are</w>
ord ers</w>
lim ita</w>
P atr
dev reme</w>
concer n</w>
start ing</w>
con t</w>
ist ilor</w>
Fo x</w>
Fl or
p ast
buil t</w>
B u
expl ic
NR L</w>
v ia</w>
ur ch</w>
thre at
re ds</w>
E U
p area</w>
origin ally</w>
2 5
ajut at</w>
tem por
ot a</w>
de al
reg iune</w>
commit tee</w>
4 .
no ile</w>
Domn ule</w>
re ached</w>
bey ond</w>
L isb
regul ation</w>
Lis ab
web site</w>
k new</w>
Lisb on</w>
ju ca</w>
em n
hus band</w>
partid ul</w>
cl aim</w>
angaj at</w>
Pre mi
gentlem en</w>
e el
continu at</w>
Lisab ona</w>
comerc i
carb on</w>
ter min
K el
up t
pre vent
et ic</w>
co ordon
prev ent</w>
injur y</w>
if f</w>
s ou
C .</w>
conside red</w>
benef it</w>
istor ia</w>
guvern ament
aleg eri</w>
compar ed</w>
cl e</w>
in ii</w>
import ance</w>
br idge</w>
sper anta</w>
acest i</w>
D un
pre ocup
u ca</w>
ban ca</w>
er b
Liver pool</w>
atac ul</w>
inter mediul</w>
M ay
inter pret
vre odata</w>
ist ul</w>
gres it</w>
d ub
cre at</w>
al one</w>
t ol
m es</w>
6 5</w>
success ful</w>
comun ic
R ad
N S
urm at</w>
invest itii</w>
G las
I reland</w>
intreb ari</w>
Mat t</w>
wr itten</w>
oc upa</w>
consider at</w>
con sequ
comp ens
just ice</w>
com ert
bo o
aband on
s ev
Gal ilor</w>
ar ding</w>
ev in</w>
dow n
P op
actu ala</w>
per mit
dur ata</w>
car ui</w>
domn ilor</w>
syst ems</w>
orig ine</w>
S oci
leav ing</w>
S am
B A</w>
ad oles
inch is</w>
fo ur
En gl
Beij ing</w>
l anda</w>
atr as</w>
alt y</w>
cor p
ar gu
pro jects</w>
med ie</w>
put erea</w>
cas h</w>
d iver
acc el
rel ations</w>
enc ies</w>
Co re
y ester
cere rea</w>
acuz atiile</w>
direct ive</w>
declar and</w>
avo id</w>
Ch ic
ta ined</w>
interest s</w>
com ment</w>
sel ect
purt ator</w>
n it</w>
anc ed</w>
previ ously</w>
T ay
re ala</w>
kno w
at o
achiev e</w>
succ es
conform itate</w>
pict ured</w>
au d</w>
J ack</w>
h ood</w>
contrib ui</w>
lum ina</w>
ul ly</w>
peric ol</w>
in sur
ach es</w>
V est</w>
subl in
rezult ate</w>
protect ie</w>
o g</w>
h an</w>
fort ele</w>
num bers</w>
fond uri</w>
N o</w>
4 4</w>
hund reds</w>
parint ii</w>
cons ist
benef its</w>
confer inta</w>
bab y</w>
fi ica</w>
d ul
u c</w>
tr ack</w>
en or
inst al
de graba</w>
plec at</w>
incep and</w>
une ori</w>
su fici
app ear</w>
9 9</w>
Sec ret
juc ator</w>
gir l</w>
Jap an</w>
yester day</w>
rul e</w>
rap h</w>
dev ina</w>
vest ul</w>
O sc
refug ees</w>
h t
ear ing</w>
res urs
Chic ago</w>
l angu
ies it</w>
ext ul</w>
follow ed</w>
ra ine</w>
nas cut</w>
Al l
i un</w>
st ood</w>
h et
buc ura</w>
y ed</w>
Hill ary</w>
p una</w>
solic ita</w>
ob st
f und</w>
bo x</w>
p ar</w>
f ug
Char les</w>
vre au</w>
ant ele</w>
ajung a</w>
immedi ately</w>
li der</w>
U cr
laun ched</w>
be half</w>
detail s</w>
pe ace</w>
ere i</w>
camp anie</w>
Af gh
efici ent</w>
Steph en</w>
trad it
cult ural</w>
punct ele</w>
m as</w>
ev el
sup er</w>
cere mon
democr acy</w>
aliz are</w>
car s</w>
el a</w>
D en
com un</w>
at al
S an
simt it</w>
a ks</w>
int ar
as cult
sim ple</w>
om et
aj a</w>
Crac iun</w>
us s</w>
ific ation</w>
an ded</w>
ess ential</w>
inclu des</w>
efort uri</w>
reas ons</w>
h ib
n ationala</w>
cr ima</w>
organ is
it ch</w>
comm ents</w>
presed int
pract ica</w>
eng le
P en
ri age</w>
lum ii</w>
e ing</w>
pl ati</w>
olog y</w>
m ar</w>
finant are</w>
joc ul</w>
impi ed
extrem ely</w>
reduc ere</w>
be hav
fi x
dr aw</w>
coment ar
S k
sho oting</w>
part ner</w>
op ened</w>
fr ag
ag enda</w>
n orth</w>
mi x
doamn elor</w>
cal ling</w>
we ap
oper ation</w>
bu z
pes cu
ight ly</w>
separ ate</w>
environ mental</w>
we ight</w>
sh own</w>
neces ara</w>
ress ed</w>
do or</w>
F il
c ain
develop ing</w>
mur der</w>
c ate</w>
mod ern</w>
in sp
fr ustr
inc ant
fr amework</w>
sol d</w>
atac urile</w>
rec ta</w>
dist anta</w>
requ ired</w>
en ul</w>
shar es</w>
of ere</w>
J er
exper ts</w>
G O
sprij ini</w>
mod alitate</w>
def ence</w>
coleg ii</w>
rezult at</w>
a f</w>
miss ing</w>
T O</w>
cre a</w>
aff ected</w>
ad vis
3 9</w>
pres idential</w>
J am
Roy al</w>
jo in</w>
sp ate</w>
sch em
0 0
obiect iv</w>
candid ate</w>
al ists</w>
J ack
Ed in
B or
lead ership</w>
go als</w>
adv ant
post ed</w>
ar ian</w>
gr ade</w>
am bl
ing er</w>
al ism</w>
drum ul</w>
ju stit
p om
mil es</w>
ins ula</w>
condit iile</w>
compl ic
reg iunea</w>
pret ul</w>
tax a</w>
con cre
caut a</w>
jud ge</w>
Engl ish</w>
sc i
rup t</w>
an iei</w>
em en</w>
americ ane</w>
protect ia</w>
con ce
organiz at</w>
las at</w>
distrib ut
utiliz at</w>
Mondi ala</w>
5 ,
aliz at</w>
recunos cut</w>
or ile</w>
arm ata</w>
Edin burgh</w>
ak es</w>
te ams</w>
report ing</w>
fi m</w>
det ect
r o</w>
re ality</w>
solut ion</w>
op ping</w>
op er</w>
h i</w>
e g</w>
salv are</w>
re form</w>
reg ist
ch em
ans wer</w>
O n
dep as
br ut
an der</w>
driv ing</w>
Hol ly
atac uri</w>
ra ise</w>
wor d</w>
sug ereaza</w>
l it
docum ent</w>
obst ac
c ast</w>
be aut
S il
n i
trimest ru</w>
in locu
t oc
pret urile</w>
on a
mas ini</w>
er ous</w>
dis ease</w>
s imp
k en</w>
Flor ida</w>
pre t</w>
rec ord
ol ului</w>
id ere</w>
dific ila</w>
Ale x</w>
M arii</w>
Uk raine</w>
er ial</w>
not e</w>
in diferen
me as
e au</w>
origin al</w>
ajut orul</w>
Sh ar
fl ight</w>
f f</w>
Pak istan</w>
p ush
pl ata</w>
ill ed</w>
tin erii</w>
Ind on
T im</w>
w il
um an
al imente</w>
t un
gr ab
legisl ative</w>
200 4</w>
exprim at</w>
cult ure</w>
T o
j ected</w>
ion ata</w>
obiect ivul</w>
fair s</w>
K evin</w>
Sh er
mec an
dez amag
w ish</w>
pre con
pov este</w>
mas urile</w>
confirm at</w>
increas ing</w>
Mur ray</w>
ram ana</w>
A F
4 3</w>
hom es</w>
F e
A BC</w>
resp ins</w>
Que ens
person alul</w>
T ara</w>
I T</w>
pl anul</w>
6 ,
r unda</w>
isl am
Tur cia</w>
z ece</w>
put ine</w>
N H
impus cat</w>
de mis
vot ers</w>
se em
op ol
J ere
H ou
vin ov
trai esc</w>
b lood</w>
4 2</w>
sp it
compl ex</w>
Pres s</w>
tra it</w>
res idents</w>
gu il
w est</w>
dec i</w>
pl e
ay ne</w>
7 ,
scr ip
sit ting</w>
St ar</w>
maj ore</w>
an ul
am ing</w>
D u
restaur ant</w>
Reg ul
ad er
Ira k</w>
ty p
re sc
pe de
complet ely</w>
tr ain</w>
l asa</w>
leg ata</w>
T om
cr ash</w>
op era</w>
ma xim
Mat the
d um</w>
cercet atorii</w>
fem ale</w>
Per th</w>
N oua</w>
dec isions</w>
a dem
T un
str uctur
sear ch</w>
baz eaza</w>
N ic
t able</w>
os ing</w>
th or
sanat atii</w>
Pac ific</w>
m ing</w>
ab use</w>
20 00</w>
I ran
sistem ului</w>
invest ors</w>
pl ane</w>
a b</w>
sig ned</w>
k ids</w>
ing ham</w>
gun oi</w>
ma g
cir cul
criz ei</w>
medic ale</w>
add ition</w>
J an
ris c</w>
B ern
potent i
dam age</w>
adopt at</w>
L ew
k i</w>
y es</w>
terror ism</w>
io ara</w>
cent ury</w>
4 7</w>
vic e
ul ar</w>
povest ea</w>
ech an
high est</w>
ag res
h es
st atist
prom ot
pas s</w>
law s</w>
ar ily</w>
po z
jum at
dec ades</w>
avert izat</w>
vig oare</w>
pil ot</w>
b on
ju red</w>
. com
no on</w>
secur itatea</w>
red us</w>
D is
in ima</w>
Christ mas</w>
fac ing</w>
even iment</w>
doved it</w>
cut s</w>
ain t</w>
ati une</w>
A l</w>
grup uri</w>
y p
do g</w>
Mil ib
I n</w>
Offic e</w>
mot iv
mo arte</w>
Holly wood</w>
7 .
re member</w>
pre ad</w>
emerg ency</w>
dr ugs</w>
intern al</w>
ass a
appropri ate</w>
E S
r ain
ur se</w>
ro b
g ing</w>
b ut
m ir
S up
bu st
I M
cuv inte</w>
de fe
C N
r ying</w>
il legal</w>
challeng es</w>
Milib and</w>
ad unat</w>
reg ions</w>
joc uri</w>
c arte</w>
unt y</w>
we ather</w>
vede rea</w>
g ow</w>
at ra</w>
irm an</w>
in qu
rezult atul</w>
r ock</w>
lid erii</w>
sc az
s ange</w>
referen dum</w>
ar ate</w>
Car ol
fac eti</w>
as as
extr a</w>
zon ele</w>
conf idence</w>
id enta</w>
L uc
Jere my</w>
sc a
over all</w>
cr oss</w>
cont est
miss ed</w>
pl ed
co ordin
venit uri</w>
var i
juc atorii</w>
cut e</w>
ass ess
E d</w>
th inking</w>
do z
migr ants</w>
Amer icans</w>
in spect
of fered</w>
Reg atul</w>
opin ia</w>
cere r
aliz area</w>
prob a</w>
polit ics</w>
four th</w>
ad d</w>
Char lie</w>
C as
K r
is s
astept at</w>
particip a</w>
mid dle</w>
v ille</w>
L at
de leg
strateg ic</w>
P ost</w>
r id</w>
Pal est
v acc
re put
ma il</w>
g un</w>
st ation</w>
in jured</w>
5 .
compan iile</w>
y ers</w>
e f</w>
bin e
rap ida</w>
ap par
im press
Ima ges</w>
raport ului</w>
qu art
mov ement</w>
ing ing</w>
k ept</w>
con vent
int er</w>
itor ilor</w>
d are</w>
consum atorilor</w>
rapport eur</w>
cre di
4 6</w>
dov ezi</w>
g i
n ica</w>
altern ative</w>
wor k
em ph
r uns</w>
H aw
com put
let ter</w>
am iaza</w>
serv ed</w>
resp ond
sc uz
gr am
EU R</w>
cho ice</w>
pass ed</w>
plac es</w>
6 .
am i</w>
leg it
l ing
sustin ut</w>
intern ationala</w>
yo ung
a wn</w>
K enn
int im
govern ments</w>
St ad
sp on
iz ol
in scris</w>
tre ia</w>
ent ire</w>
natur ale</w>
pi esa</w>
net work</w>
E s
telev ision</w>
us ers</w>
priet en</w>
l ess
au a</w>
ar un
A .</w>
u k</w>
m el
arm ed</w>
un fort
drag ost
vide oc
Glas gow</w>
Franc is</w>
anc y</w>
o gue</w>
l edge</w>
Tay lor</w>
ment ine</w>
or ing</w>
re in
dr ive</w>
po arta</w>
al ia</w>
tan ar</w>
loc urile</w>
commit ted</w>
commit ment</w>
discut ii</w>
Centr al</w>
prom is</w>
ear ga</w>
Gre ek</w>
b us</w>
ad ding</w>
acc es</w>
compl ex
Lab or</w>
Ir landa</w>
activ ities</w>
Har ry</w>
f ear</w>
a ina</w>
inc ident
S E
4 1</w>
spati u</w>
car ry</w>
suf fered</w>
l ent</w>
acord a</w>
ed ing</w>
activ ity</w>
Depart amentul</w>
jo ace</w>
cr aft</w>
sug erat</w>
rec i
incl us</w>
dezbat erea</w>
sol d
su it</w>
Democr ats</w>
suppl y</w>
Organ iz
proced ura</w>
m echan
inv ins</w>
raspun sul</w>
C E</w>
remar c
tran z
fig ure</w>
difer it</w>
mec iul</w>
fact or</w>
M emb
mon d</w>
Ser vic
v eg
se em</w>
trans m
prov inc
buget ul</w>
semnific ativ</w>
pl atit</w>
bo ys</w>
indiferen t</w>
const ant</w>
co uldn</w>
h ear</w>
de gre
Queens land</w>
aut or</w>
war ned</w>
ur ale</w>
st ock</w>
bine inteles</w>
devel op</w>
implement ation</w>
comm erc
M E
vic time</w>
con vict
post ului</w>
sol di
est er</w>
er ly</w>
r ot
imbr ac
schimb ari</w>
rece ive</w>
me th
E l</w>
sp end</w>
m ing
incerc area</w>
art h</w>
Sim on</w>
at ile</w>
cond ition</w>
Afr ican</w>
jo s</w>
domest ic</w>
arriv ed</w>
jo int</w>
lupt at</w>
aspect e</w>
app ears</w>
sustain able</w>
p si
intreb are</w>
S ol
M itch
toc mai</w>
car acter
A L
antren orul</w>
b il</w>
batt le</w>
argum ent
sub s
ag ues</w>
s ala</w>
fel ic
em ail</w>
emis s
attemp t</w>
1 50</w>
competit iv
er ului</w>
sust ine</w>
Jos h</w>
Co unty</w>
B an
fab r
on om
bal ance</w>
sprij ina</w>
pac ate</w>
el ev
4 9</w>
zb or</w>
bo w
per s</w>
pre dict
imag ini</w>
unat ely</w>
elect ions</w>
in son</w>
p c</w>
sublin iat</w>
desig ned</w>
prot est</w>
see ing</w>
fo c</w>
c er</w>
pr osp
po p</w>
g er</w>
Wil son</w>
gir ls</w>
dr aw
C lu
preg ati
intaln ire</w>
bun i</w>
sos it</w>
becom ing</w>
O ri
stit ute</w>
fond ul</w>
car d</w>
Syr ian</w>
asad ar</w>
ic ations</w>
develop ed</w>
Pr int
invest it
s outh</w>
mov ie</w>
fac ed</w>
H al
plan urile</w>
arest at</w>
R am
dang erous</w>
Wal ker</w>
po stul</w>
urmat oarele</w>
G en
v ital</w>
tere n
li p</w>
gres s
R ub
de ad
ash ed</w>
tit le</w>
put ting</w>
is co</w>
i res</w>
Mos co
il s</w>
u per
medic ala</w>
d ut
sezon ul</w>
par ut</w>
opportun ities</w>
Bar ack</w>
un ion</w>
driv er</w>
Christ ian</w>
than ks</w>
iz on
av i
dou ble</w>
reglement are</w>
C ath
stre et</w>
particip at</w>
ht t
B ay</w>
propun ere</w>
ef ully</w>
st yle</w>
mean while</w>
g al
discut iile</w>
continu es</w>
M ail</w>
Memb ers</w>
se aza</w>
be at</w>
den um
ofer ta</w>
mar it
libert atea</w>
pier de</w>
de ep</w>
bro ther</w>
m earga</w>
electr ic
O s
8 00</w>
plan ning</w>
B re
e ul</w>
rezer v
R og
wal k</w>
do amna</w>
NS W</w>
oper ations</w>
ey e</w>
bel ow</w>
princip alul</w>
gaz e</w>
f ine</w>
in ul</w>
des t</w>
Op en</w>
P at
M ol
s ave</w>
oc ol
V i
doct or</w>
a o</w>
Y emen</w>
M e
mar riage</w>
atur at</w>
anter ioare</w>
z atoare</w>
heav y</w>
tr ou
ion ing</w>
c y</w>
E con
B ost
Y ou
hear ing</w>
ap el
P an
G o
obtin a</w>
anal ys
up ei</w>
rup tion</w>
requ ire
in ess</w>
evalu are</w>
agre ements</w>
in und
V en
Mitch ell</w>
sezon ului</w>
analiz a</w>
cr u
rel ax
public atiei</w>
ne ur
re ly</w>
c icl
t or
mer ita</w>
l iter
du bl
coresp un
b iser
Arab ia</w>
Econ om
new sp
leg ea</w>
autom ob
lin ie</w>
at mos
ac adem
immigr ation</w>
co ver
jo ined</w>
demonstr at</w>
ON U</w>
re i</w>
t ort
W el
wor st</w>
gre en</w>
diferen ta</w>
ol ve</w>
es ential</w>
l ar</w>
D um
os ex
ide e</w>
cump ara</w>
Ital y</w>
Grup ului</w>
v ada</w>
stra ight</w>
rezolut ie</w>
s we
f ar
y m
sch ed
li m</w>
depl as
Mar k
wh om</w>
T al
par as
9 ,
initi ativa</w>
ar ch
prov iding</w>
propri ul</w>
ma kers</w>
co rect
6 00</w>
c aught</w>
A N
v est</w>
un iversit
servic iu</w>
pet rol
im pozit
ann el</w>
us ion</w>
transform at</w>
exist ing</w>
b ase</w>
J en
soci etat
do m</w>
confrunt at</w>
A u
und ing</w>
acc ept</w>
19 5
sl ab
calator ie</w>
200 3</w>
d atele</w>
ad j
oth er
emph as
sum mit</w>
f ii</w>
pl ang
Inter net</w>
Austral iei</w>
pre turilor</w>
n y</w>
dro p</w>
compar atie</w>
administr ation</w>
may be</w>
t ers</w>
defin it
Mor gan</w>
tr o
sy m
recuno ast
trans forma</w>
num arului</w>
mil lions</w>
s ort</w>
m am
act iv</w>
ay ed</w>
Pres idency</w>
em or
ib ly</w>
explo at
ic ate</w>
uc iderea</w>
contrib uie</w>
abil i</w>
kill ing</w>
servici ilor</w>
mult iple</w>
iz ate</w>
sust in</w>
austr alian</w>
Mis s</w>
achiz it
construct ion</w>
att ers</w>
solut ie</w>
retur ned</w>
manag ed</w>
product ie</w>
iv al
distr ug
after noon</w>
M P</w>
lim ited</w>
H ill</w>
D o
grav a</w>
anunt ul</w>
ev olut
effect s</w>
capit ala</w>
product ia</w>
ik es</w>
believ es</w>
ap sa</w>
an ish</w>
H or
gran ita</w>
increas ingly</w>
ech ipe</w>
s ize</w>
produc t</w>
pede apsa</w>
obiect ive</w>
rezer va</w>
ov a</w>
nast ere</w>
report er</w>
p air</w>
glob ale</w>
g ig
Gra ham</w>
sur s
lip s
i eni</w>
l ose</w>
itud ine</w>
ac ele</w>
fil me</w>
al itatii</w>
H el
ret el
ridic ate</w>
re pres
appe al</w>
oc cas
ans at</w>
h a</w>
dol ari</w>
I l
ord on</w>
doub t</w>
W ales</w>
U PI</w>
Bost on</w>
C O
ac el</w>
intel lig
t ough</w>
p aper</w>
ul ele</w>
hol ding</w>
eg raph</w>
GO P</w>
pov erty</w>
re pre
pl aja</w>
up on</w>
H ug
Gu ar
prepar ed</w>
He alth</w>
show ing</w>
sc ale</w>
giv es</w>
he ata</w>
sub iect</w>
t in</w>
propri ile</w>
o red</w>
dr ama</w>
dec ade</w>
vot ing</w>
n on
f le
c uno
as king</w>
Co ast</w>
obiect ivele</w>
o de</w>
W ar</w>
pl ine</w>
condamn at</w>
var st
htt p</w>
an z
americ ana</w>
high ly</w>
suggest ed</w>
ram an</w>
ath s</w>
ident ified</w>
fem in
art ist</w>
anim al</w>
ab solut
v ill
beg inning</w>
n ature</w>
act ual</w>
Just ice</w>
fav our
A C</w>
s or
s end</w>
s ell</w>
perform anta</w>
pun erea</w>
luc ra</w>
Tel egraph</w>
wa it</w>
f um
ev ita</w>
F und</w>
step s</w>
u at</w>
gre at
en er</w>
club ul</w>
urmat oarea</w>
red res
h ost</w>
spo ke</w>
assist ance</w>
S ci
drept ate</w>
conc ed
if ying</w>
fe eling</w>
olog ie</w>
lib era</w>
support ed</w>
direct ly</w>
piet ele</w>
exact ly</w>
ul ate</w>
M y
mar ca</w>
requ est</w>
plan ned</w>
St u
st one</w>
apar are</w>
kil omet
hum an
f it</w>
ant ului</w>
m unt
telef on</w>
beg in</w>
pow ers</w>
S f</w>
Congres s</w>
lin ked</w>
it ului</w>
see king</w>
p astr
iz ata</w>
cl in
susp ect</w>
sent iment
f an</w>
tr ip</w>
sar cina</w>
proiect e</w>
mac ar</w>
it elor</w>
. C.</w>
te en
plat easca</w>
neces ita</w>
exper t</w>
valu es</w>
colle agues</w>
Tu be</w>
Chin ei</w>
aj ului</w>
Jap onia</w>
pi ece</w>
passeng ers</w>
sy ch
po d
franc ez</w>
em is</w>
e fort</w>
barb atii</w>
semn at</w>
5 0
pot i</w>
hel ping</w>
candid ates</w>
Ev ans</w>
id ers</w>
all er</w>
200 1</w>
hous ing</w>
ver bal</w>
ent y</w>
rel atiile</w>
maj ora</w>
l ands</w>
absolut ely</w>
scient ists</w>
bom b
shar ed</w>
intoar ca</w>
guil ty</w>
s en</w>
sub iect
Cent rul</w>
spir it</w>
Dav is</w>
g est</w>
propun eri</w>
e ala</w>
n es</w>
arm s</w>
ad mitted</w>
impl icat</w>
S oc
inv ent
chest iuni</w>
sti ut</w>
prior ity</w>
F ond
inc ar
in fect
cre ating</w>
alleg ed</w>
trans fer</w>
langu age</w>
la unch</w>
sp ar
Franc isco</w>
wo uldn</w>
D A</w>
individ u
eliber at</w>
consum er</w>
inche ie</w>
Pr ot
cam p</w>
K ir
bo ala</w>
gr av</w>
famil iile</w>
ight ers</w>
obvi ously</w>
my self</w>
con clu
st ers</w>
p use</w>
an sa</w>
Ser vice</w>
pat rul
P A</w>
spe ed</w>
sp ot</w>
mat erial</w>
issu ed</w>
C a
col abor
Med iter
am ple</w>
antren or</w>
la h</w>
if f
injur ies</w>
incre derea</w>
lo y
v eni</w>
re forma</w>
discut a</w>
telef on
h ab
vot ul</w>
reg im
co uncil</w>
refugi ati</w>
ra in</w>
Jack son</w>
cooper are</w>
doct ors</w>
Clar ke</w>
vit eza</w>
bir oul</w>
acces ul</w>
priet enii</w>
9 5</w>
neigh bour
g ay</w>
emiss ions</w>
J ason</w>
imprum ut
dec en
ish ment</w>
istor ie</w>
cre asca</w>
Camp ion
vict im</w>
ver de</w>
psi h
keep ing</w>
Sand ers</w>
sot ul</w>
obis n
crow d</w>
igh ted</w>
fundament ale</w>
ic ide</w>
hom osex
vis ion</w>
fond urile</w>
s at</w>
raport at</w>
ber t</w>
Lew is</w>
f are</w>
N a
tw are</w>
Z eal
fal se</w>
R ed
prez inte</w>
le ague</w>
au ster
adaug a</w>
Ch amp
alt ul</w>
capt ain</w>
I m
employ ees</w>
bo dies</w>
FI FA</w>
at oarea</w>
c t
ty pe</w>
a .m.</w>
V an</w>
purt atorul</w>
sp una</w>
milit are</w>
is s</w>
ion ally</w>
ev ening</w>
an ual</w>
Vir gin
commerc ial</w>
ast ru</w>
l es
cab in
Wh it
Gre en</w>
sel ling</w>
relig ious</w>
det ine</w>
zer o</w>
fisc ale</w>
princ iple</w>
proces ului</w>
dis pozitie</w>
Ital ia</w>
tax e</w>
or ies</w>
olog ical</w>
lup te</w>
Sch ool</w>
legisl atia</w>
ofit er</w>
dis ci
tehnolog ie</w>
ot ul</w>
ow ner</w>
b id</w>
Mex ico</w>
G ordon</w>
u k
prom is
mij loc
de loc</w>
cad ru</w>
wa iting</w>
event ually</w>
U N</w>
pl o
n em
tr ust</w>
stat us</w>
profes or</w>
impart as
H a
Cub a</w>
dis appoint
car i</w>
Virgin ia</w>
ran it</w>
m ach
Cent er</w>
folos esc</w>
gr af
fisc al</w>
fe e</w>
In stitut
Bul garia</w>
ince apa</w>
Secret ary</w>
support ers</w>
mass ive</w>
f res
pl ant</w>
b ag
An dy</w>
lear n</w>
e um</w>
crest erii</w>
econom iei</w>
al isation</w>
S a
asig ure</w>
c os
intere sul</w>
un er
fam ous</w>
in ian</w>
Sp ain</w>
un ica</w>
ce il
ind rept
des ign</w>
industr ial</w>
dest ro
re amint
s ources</w>
at urile</w>
Kel ly</w>
B ang
reg ret
t act
n ordul</w>
f ash
par li
we alth</w>
sur ro
secret arul</w>
comp on
Z eel
terror ist</w>
l ac
ofit erii</w>
ad i</w>
it ation</w>
de se
contrib u
9 .
influ enta</w>
dep us</w>
g heata</w>
cost urile</w>
R ights</w>
sper am</w>
prote ja</w>
ef fici
imbunatati rea</w>
absol ut</w>
stic la</w>
me ant</w>
1 2
princip ala</w>
es cap
M i
per fect
funct ia</w>
fac es</w>
m atters</w>
L y
reg arding</w>
ol der</w>
T he
s ides</w>
rec ente</w>
sport s</w>
crit ical</w>
sud ul</w>
aff ic</w>
pack age</w>
numer oase</w>
Braz il
occ ident
Pr ince</w>
sco red</w>
regul ar</w>
ef ect</w>
pres iuni</w>
sci ence</w>
m al
glob ala</w>
cha irman</w>
um a</w>
pach et</w>
folos easca</w>
it uri</w>
desch isa</w>
trat ament</w>
mer g</w>
em a</w>
anum e</w>
subs id
set ting</w>
prim esc</w>
cap ul</w>
p age</w>
sem n</w>
pl ays</w>
preg atit</w>
re new
provo care</w>
vo ice</w>
aliment are</w>
Com un
responsabil itatea</w>
iv ing</w>
st ore</w>
o o</w>
unfort unately</w>
priet eni</w>
dor iti</w>
Isl am
viol ent</w>
tre c
z ilor</w>
gr and
8 ,
profess ional</w>
n am
inter dict
equ ip
Curt ii</w>
tranz act
och ii</w>
k el</w>
anch et
5 2</w>
You Tube</w>
M ir
st ress</w>
pe dep
f ish</w>
perman ent</w>
et t
ail ed</w>
un ch
sit es</w>
priv at</w>
cult ura</w>
us ually</w>
oric ine</w>
fac uta</w>
Osc ar</w>
res er
desfasur are</w>
contrib uit</w>
t ur</w>
us ual</w>
r s</w>
mis care</w>
docum ents</w>
sof tware</w>
ra el
ma gn
competit ive</w>
e or
O R
reco very</w>
meas ure</w>
in evit
imag es</w>
Premi er</w>
Ko rea</w>
com ed
ess ed</w>
E C
de asupra</w>
p ush</w>
funct ioneaza</w>
ev ac
dis covered</w>
ag er</w>
as yl
Zeal and</w>
t our</w>
r ich</w>
angaj ati</w>
act s</w>
un it</w>
O ly
St at</w>
Matthe w</w>
dispon ibile</w>
conserv ator</w>
anch eta</w>
aer oport
rez ist
p ic</w>
od y</w>
distr ict
de liber
v ent</w>
lab our</w>
hop es</w>
ere ze</w>
t ea</w>
um ul</w>
sez e</w>
An th
vers ion</w>
ex change</w>
c ities</w>
B I</w>
ra ising</w>
provoc at</w>
St e
Lou is</w>
is rael
em an</w>
Pol it
ur ie</w>
n opt
i au</w>
alb um</w>
dator ita</w>
asyl um</w>
ack now
pris on
mes aj</w>
br ain</w>
n ut
s pl
acuz atii</w>
Sen ate</w>
pre ci
J ord
Commun ity</w>
auth or</w>
minim um</w>
itu de</w>
dev ine</w>
Tun is
utiliz ate</w>
pur ch
servic iul</w>
agent ia</w>
Comis ie</w>
ming ea</w>
spec ifice</w>
sent iment</w>
sen al</w>
sal ut
major itate</w>
dom enii</w>
agricult ural</w>
L o
ne ar
f rec
B ud
dr opped</w>
asas in
abil itatea</w>
M Ps</w>
min unat</w>
Geor gia</w>
studi ul</w>
h art
gen der</w>
200 2</w>
prab usit</w>
independ enta</w>
cam ere</w>
D istr
coll ect
ser ios</w>
H all</w>
vehic le</w>
pr aj
jumat atea</w>
situ at</w>
prom ote</w>
civ ile</w>
str ike</w>
auz a</w>
m int
r ose</w>
establ ished</w>
str ict
ap ara</w>
amenint are</w>
rasp and
part ners</w>
Al an</w>
surpr in
ip p
ar ele</w>
M u
differen ce</w>
dr aft</w>
Ser b
Anth ony</w>
rapo arte</w>
if ul</w>
vot uri</w>
il la</w>
fo ot</w>
B ol
photogr ap
flo or</w>
del iver
In di
m ant
rad ic
n ei</w>
tre ated</w>
art s</w>
agent iei</w>
8 5</w>
in sel
wh at
cooper area</w>
Q a
F ort
k in</w>
inteleg e</w>
al oc
act ion
G il
part ial</w>
A h
ment ioned</w>
En erg
sub urb
L a</w>
administr atia</w>
i as
grup urile</w>
Br ian</w>
win ner</w>
us ur
scand al</w>
concre te</w>
ay s
NA TO</w>
pres iune</w>
au da</w>
fin ance</w>
politici ans</w>
O ne</w>
vanz are</w>
n atura</w>
detal ii</w>
fo rec
Mus lim</w>
ot o</w>
infrastruct ure</w>
T est</w>
H igh</w>
ific ata</w>
bl ed</w>
al ised</w>
bom ba</w>
s low
r ies</w>
n i</w>
engle za</w>
dig ital</w>
introduc ed</w>
crit icat</w>
consequ ences</w>
ad op
influ ence</w>
tr affic</w>
fail ure</w>
Ass ad</w>
scur ta</w>
intere s</w>
ic ului</w>
fe et</w>
and ing</w>
act ed</w>
cr oss
centr ala</w>
br a</w>
S he
Co oper</w>
201 7</w>
und ation</w>
st il</w>
seem ed</w>
s es</w>
l osing</w>
T y
dif uz
S we
spectac ol</w>
gr aph
nucle are</w>
in ea</w>
comerc ial</w>
8 .
pre d
disc uss</w>
ah u</w>
p ick</w>
en der</w>
des c</w>
commun ities</w>
D E</w>
mar gin
ig nor
re m
econom ie</w>
solidar ity</w>
Rom ania</w>
pu si</w>
m id</w>
d os
comun itatii</w>
ag ent</w>
en om
ai g</w>
I an</w>
strateg ie</w>
dis per
Wat son</w>
Guar dian</w>
ey es</w>
off ers</w>
sh all</w>
cor upt
L A</w>
F ord</w>
F estiv
coun ter</w>
e ast</w>
av ion</w>
re cl
or al</w>
w ise</w>
mut at</w>
I C
introduc e</w>
fi f
prom p
deoseb it</w>
s ession</w>
f ete</w>
do ban
A soci
heal thy</w>
act ing</w>
S ea</w>
farm ers</w>
v az
sco p</w>
imbunat at
even imente</w>
s indic
n ings</w>
account s</w>
kno ws</w>
fr atele</w>
pr ins</w>
N FL</w>
Core ea</w>
provi des</w>
pow erful</w>
pic ioare</w>
nor thern</w>
in ei</w>
finant area</w>
bl ock</w>
inche ia</w>
Oc c
intreb area</w>
alt ele</w>
r ati
d aily</w>
scen ar
read ing</w>
m ul</w>
boo ks</w>
d atelor</w>
al ilor</w>
tel ling</w>
pozit iv</w>
Lu ke</w>
oc ked</w>
ord ine</w>
J im</w>
I P</w>
ma ine</w>
u it
te at
ris ing</w>
support ing</w>
Tur k
pre h
loc k</w>
popul atia</w>
coment arii</w>
7 00</w>
or row</w>
advant age</w>
pi ese</w>
ater al</w>
imigr anti</w>
cel el
dec enii</w>
celel alte</w>
A R
s fer
S om
A S
mis s</w>
discut at</w>
al b</w>
ic ile</w>
el ected</w>
bre ak
refer itor</w>
pen alty</w>
high l
as ul</w>
M ary</w>
Democr atic</w>
char acter</w>
ag encies</w>
W all</w>
M ij
vir t
depend ent</w>
ui asca</w>
anim als</w>
B ec
chec k</w>
Mill er</w>
r ig
o uri</w>
un ic</w>
t ic
ros u</w>
risc ul</w>
ind a</w>
impact ul</w>
bas ic</w>
O x
Mc C
wor se</w>
produc ed</w>
in ks</w>
cl ara</w>
z g
w earing</w>
sanat atea</w>
fri end
locu inte</w>
Supre me</w>
dist inc
loc ala</w>
b io
jo ur
inter ior</w>
dezvol ta</w>
c en
seri ously</w>
obisn uit</w>
app ed</w>
ad o</w>
str ikes</w>
do gs</w>
depart ment</w>
vac anta</w>
pre ven
fin ding</w>
re apta</w>
ad ult
Associ ation</w>
fron t
A ma
vehic les</w>
Lig a</w>
jurn al
ati z
form at</w>
estim ated</w>
H ot
tre z
abord area</w>
Str ateg
E S</w>
h ot</w>
supr af
r ating</w>
t arilor</w>
sh op</w>
targ ets</w>
par k</w>
med iului</w>
al ong
In vest
du sa</w>
reform s</w>
Car l
Med ic
I ow
pre lu
pl ina</w>
ex clu
candid at</w>
ativ ely</w>
actu ale</w>
An der
qu al
ne z
AF P</w>
spec ific
Ucr aina</w>
5 4</w>
sec ure</w>
gre ut
gener ala</w>
an on
J ef
object ives</w>
hav en</w>
afect eaza</w>
i erul</w>
In c</w>
sc ot
newsp aper</w>
leg at</w>
distr us</w>
appl y</w>
comun itatea</w>
discut ie</w>
i ot
h ou
ch im
Rep ublic</w>
R ez
n ed
aprop ierea</w>
co ez
um p
mondi ala</w>
Saud i</w>
artic olul</w>
5 1</w>
prop us</w>
in su
re ign</w>
co sta</w>
St an
trad ing</w>
st opped</w>
br inging</w>
capac ity</w>
Net any
. .</w>
decen iu</w>
tribun al</w>
am inte</w>
ak ers</w>
Trat atul</w>
produs ele</w>
precon izeaza</w>
adecv at</w>
Ac t</w>
secret ary</w>
p aying</w>
i orul</w>
ju det
aim ed</w>
star s</w>
p sych
D am
poss ibility</w>
k ins</w>
inc olo</w>
i et</w>
along side</w>
afect at</w>
Cop enh
od a</w>
fin ished</w>
exper iment
Netany ahu</w>
imbunat ati</w>
chang ing</w>
Mij loc
stand s</w>
liv ed</w>
form s</w>
ad ian</w>
R oo
produs elor</w>
s ound</w>
sprijin it</w>
dram atic</w>
dor inta</w>
pleas ed</w>
bun ast
respon d</w>
weap ons</w>
stud enti</w>
rev e
ed ia</w>
coal ition</w>
Mijloc iu</w>
direct ion</w>
cheltuiel ile</w>
Ori entul</w>
E st</w>
sev ere</w>
ag en</w>
Secur ity</w>
Al i</w>
buc urat</w>
st i</w>
Con vent
on t</w>
desch ide</w>
D e</w>
Sp ania</w>
cond usa</w>
t um
cetat eni</w>
alleg ations</w>
tom orrow</w>
fres h</w>
H ong</w>
ret ea</w>
inqu ir
aw ar
st o
ev identa</w>
int elor</w>
appl ication</w>
cont extul</w>
Mo ham
az il</w>
neces itatea</w>
ag ement</w>
aeri ana</w>
proc e
buc at
Brit anii</w>
Ash ton</w>
num ita</w>
io anele</w>
end ers</w>
australi ene</w>
sur g
Ital ian</w>
vin de</w>
determin at</w>
ans w
solic itat</w>
cont ent</w>
audi ence</w>
Bl ack</w>
suf fering</w>
bl ue</w>
of fering</w>
judec ata</w>
expl ica</w>
t ext
se at</w>
H ay
relev ant</w>
provoc ate</w>
H amp
ast s</w>
Que en</w>
hol iday</w>
bir th</w>
St atelor</w>
N ations</w>
it ara</w>
b a
air craft</w>
Sp anish</w>
ris ks</w>
is land</w>
e v</w>
inche ierea</w>
simil are</w>
lem n</w>
pi atra</w>
r ie</w>
hes ion</w>
ref used</w>
ju r</w>
it arian</w>
eg o</w>
discuss ion</w>
cre ation</w>
pract ic</w>
cr im
Af gan
rapo art
M un
profes ion
f a</w>
K ur
C arter</w>
den ied</w>
Zeel anda</w>
perm ita</w>
in ele</w>
r ach
atr age</w>
B oy
accept able</w>
Su per
rec enta</w>
gener ale</w>
Mondi ale</w>
vict oria</w>
ic ed</w>
d ad</w>
soldi ers</w>
intern a</w>
Patr ick</w>
inv atat</w>
dig it
ofit eri</w>
festiv al</w>
direct iva</w>
car itate</w>
ad vert
bur g</w>
afect ate</w>
te ama</w>
adv oc
mar t</w>
respons abil</w>
clos er</w>
Ar senal</w>
th us</w>
rez on
express ed</w>
Oly mp
z bor
bai at</w>
NH S</w>
g old</w>
in j
n ar
form e</w>
et ich
col on
implic ati</w>
Sup er</w>
St ar
Mic hel
ide n</w>
Y o
stabil ity</w>
mark eting</w>
re quest
m ol
il ed</w>
cart ea</w>
apl ica</w>
z ap
opin ie</w>
L ar
inc ep</w>
P ow
man if
gener ation</w>
adm is</w>
tw ice</w>
see k</w>
war ning</w>
spec iala</w>
emn at</w>
proced ure</w>
inc ap
encour age</w>
R en
regul ations</w>
am id</w>
not ed</w>
foc used</w>
al itati</w>
inch ise</w>
reven ue</w>
manag erul</w>
evac u
d ated</w>
emot ional</w>
ament ary</w>
Z i
profess or</w>
par liament</w>
man n</w>
m ultim
ind reapta</w>
rec uper
mij lo
loc ation</w>
Afgh an
unt a</w>
investig atie</w>
S ur
O h
argum ent</w>
ta ins</w>
p ad
mil ion</w>
achiev ed</w>
B urn
l an</w>
Mid dle</w>
neg ru</w>
ch urch</w>
par cursul</w>
sur ve
mij loc</w>
S us
K ate</w>
5 6</w>
stre ets</w>
spun and</w>
it es</w>
at is
rez olv
Afghan istan</w>
vorb im</w>
mij locul</w>
innov ation</w>
e at</w>
coll ap
G lob
A ut
st are</w>
mar ried</w>
act orul</w>
R ec
re alitate</w>
re ale</w>
opr i</w>
lu x
exist e</w>
timp ului</w>
l ed
Bel ar
coun ter
com mod
aint s</w>
pal est
stat ements</w>
allow ing</w>
CN N</w>
Bel g
de aza</w>
bu get</w>
present ed</w>
n a
5 3</w>
regul at</w>
li ei</w>
L ord</w>
Min ist
d nei</w>
britan ica</w>
inv er
F air
pre viz
er ies</w>
A ir</w>
t ac
pl y</w>
opr it</w>
prim ary</w>
vre me</w>
el ig
ma inile</w>
Bo b</w>
ow ners</w>
Mer kel</w>
uc h
n ell</w>
lant ic</w>
supraf ata</w>
cons ecut
un able</w>
pl astic</w>
in con
adopt area</w>
adaug and</w>
Com mon
lu am</w>
guvernament ale</w>
adv ice</w>
wat ching</w>
liber al</w>
cor ruption</w>
uc isi</w>
popul atiei</w>
ig an</w>
ve de</w>
preced ent</w>
equ al</w>
analys is</w>
ro g</w>
cre dem</w>
ag l
Mal ays
transpar ency</w>
cant ar
st s</w>
hot ar
educ atie</w>
ur s</w>
gro w</w>
approv ed</w>
F R</w>
grij a</w>
deciz ii</w>
Republ icans</w>
introduc erea</w>
ac i</w>
Amer icii</w>
n ere
hol ds</w>
Mo ore</w>
un ost
J ew
sh ad
promov area</w>
combat erea</w>
um ane</w>
report ers</w>
re z</w>
cas ele</w>
ac or
sustin atorii</w>
asigur am</w>
bro ke</w>
an ese</w>
oo d
cr icket</w>
bro ken</w>
un ec
streng th
acord ului</w>
Liber al</w>
w all</w>
l ying</w>
R on
F BI</w>
re us
guarant ee</w>
H un
progre se</w>
l am
un erea</w>
to m</w>
angaj amentul</w>
politic ile</w>
view ed</w>
con sti
D P</w>
re ce</w>
consil iului</w>
br us
ar ies</w>
D al
C C
caut are</w>
angaj atii</w>
Partid ului</w>
1 3
strateg ia</w>
schimb area</w>
s ov
recomm end
pur su
scol i</w>
it ory</w>
Par cul</w>
ul ed</w>
sou thern</w>
p ain</w>
o ds</w>
f et
astept am</w>
rul ing</w>
hor r
f it
sign s</w>
Bar cel
lic it
circumst ances</w>
behav i
gro apa</w>
diag nost
C upei</w>
p ici
A P
n ical</w>
2 50</w>
fort at</w>
extre mis
d incolo</w>
bo ost</w>
I V</w>
luc reze</w>
Har ris</w>
Cr aig</w>
res urse</w>
com bust
val oarea</w>
intreg ul</w>
repe de</w>
w ing</w>
terr or</w>
Car son</w>
Br u
veter an</w>
pre tin
person alului</w>
imp ul
Isra eli</w>
y e</w>
Barcel ona</w>
res ult
it ect
dr awn</w>
O m
In dian</w>
sar bat
defic it</w>
Sar ah</w>
transpar enta</w>
sco s</w>
inregistr are</w>
riv al</w>
appear ance</w>
id ente</w>
dial ogue</w>
Print ul</w>
mon et
comis iei</w>
car rying</w>
alleg edly</w>
Jord an</w>
ch ir
Fr ank</w>
B us
ent elor</w>
de aths</w>
o ane</w>
Bl air</w>
win do
urm atoare</w>
grad ina</w>
tre s
s acr
ens ion</w>
r ural</w>
port s</w>
larg ely</w>
inform atiile</w>
energ ia</w>
b ought</w>
progr ame</w>
client ii</w>
individu als</w>
fa im
Ar gent
tro ops</w>
opt ion</w>
tr ai</w>
magaz in</w>
gi ant</w>
intreprind erile</w>
il ul</w>
br and</w>
rev olut
ev re
atiun ilor</w>
5 7</w>
sanct ions</w>
el ement</w>
b acked</w>
ar my</w>
acord uri</w>
repet at</w>
bur y</w>
H ow
univers ity</w>
fa x</w>
sex uale</w>
rol l</w>
schimb arilor</w>
expl icat</w>
ent ed</w>
anim ale</w>
pict ures</w>
cent i</w>
at ins</w>
In st
reduc ed</w>
intellig ence</w>
et te</w>
extre me</w>
r aid</w>
hol ders</w>
vanz arile</w>
sublini aza</w>
photogr aph
energet ica</w>
dis aster</w>
minist ers</w>
car or</w>
test s</w>
Mc Donald</w>
equ ality</w>
assa ult</w>
ang er</w>
D es
locu inta</w>
scuz e</w>
pier derea</w>
m ates</w>
air port</w>
ad ing</w>
u pe</w>
val ori</w>
ne agra</w>
Mad rid</w>
program ului</w>
industr iei</w>
artic ol</w>
str uck</w>
expl ained</w>
declar ed</w>
Iow a</w>
Hen ry</w>
tack le</w>
avant aj</w>
N av
stor ies</w>
h air</w>
definit ely</w>
bo x
ab eth</w>
Ang liei</w>
program mes</w>
know ledge</w>
b ed
K ong</w>
F er
C orb
princ i
preg n
perspect ive</w>
zap ada</w>
Com p
conduc t</w>
in k
schem e</w>
driv ers</w>
Ch il
co f
an dez</w>
ran g</w>
capt ion</w>
R io</w>
oper ating</w>
6 7</w>
public ul</w>
fr a</w>
elimin area</w>
ap p</w>
per mis
effect ively</w>
oss es</w>
h ur
dec is
conn ection</w>
NA SA</w>
what ever</w>
loc ated</w>
Bl ack
ona than</w>
Presed inte</w>
J onathan</w>
t ele</w>
const ient
apar area</w>
Dum nez
vot es</w>
vand ut</w>
sca derea</w>
expl os
enjo y</w>
desch iderea</w>
dar k</w>
tre aba</w>
pom pi
au to</w>
allow s</w>
enn is</w>
reflect a</w>
copil ul</w>
rasp unde</w>
en forc
tim ore</w>
ro oms</w>
phys ical</w>
iv eala</w>
dol lar</w>
S el
w aste</w>
car ne</w>
am antul</w>
solut ii</w>
ur mari</w>
nav ig
ot h</w>
autor itatilor</w>
B ow
law yer</w>
pay ments</w>
aer ian</w>
5 ,000</w>
victim ele</w>
pres ei</w>
benefic ii</w>
amb ul
to urn
reg ime</w>
pol l
Gol d
int ended</w>
cul oare</w>
P ort</w>
incal z
on ey</w>
legit im
administr ative</w>
6 6</w>
alt ceva</w>
s a
b aut
vanz area</w>
infr ang
J ud
5 8</w>
part ide
en th
ac her</w>
sug gest</w>
Tur n
Ber lin</w>
n os
n ames</w>
ent er</w>
In stitute</w>
A ca
pre lung
ail s</w>
susp ic
mod a</w>
inch isa</w>
fall ing</w>
es ia</w>
efectu at</w>
Cent re</w>
mat ern
H osp
C BS</w>
i en</w>
Fo reign</w>
comert ul</w>
scot ian</w>
clos ely</w>
requ ire</w>
posibil a</w>
medi um</w>
implic ate</w>
d at
re b
ip a</w>
agr am</w>
mic ro
corp ul</w>
gas easca</w>
tech nical</w>
S um
acor de</w>
aliz ate</w>
aliz ata</w>
eliber area</w>
com preh
mult or</w>
de but</w>
B as
lov ed</w>
olog ice</w>
Er ic</w>
k ic
exc es
cit it</w>
vorb i</w>
th ro
react ie</w>
prov iz
phot os</w>
concern ing</w>
negoci erile</w>
ci fra</w>
bre aking</w>
exist ente</w>
Carol ina</w>
Associ ated</w>
f ish
199 9</w>
f requ
cas ei</w>
F C</w>
Ama z
co hesion</w>
aprop iat</w>
f uel</w>
f aza</w>
G ov
iz eze</w>
britan ice</w>
squ ad</w>
prem iul</w>
f un</w>
Ander son</w>
mar ele</w>
in gr
ent uz
cent er</w>
Port ug
L aw
or g
sk y</w>
diffic ult
ast epta</w>
sal ut</w>
fi erb
mand at</w>
ap ei</w>
pol l</w>
eng en</w>
fe atures</w>
t ie</w>
sc ape</w>
ic ated</w>
V eg
du c</w>
Al ba</w>
opt ions</w>
e fo
person ale</w>
inform are</w>
dut y</w>
V ol
C re
y land</w>
most ly</w>
ind s</w>
drept uri</w>
lu x</w>
k ill</w>
co ast
nor oc</w>
et ii</w>
ment ina</w>
ar rest</w>
cif rele</w>
F erg
Col umb
behavi our</w>
sti int
inter iorul</w>
declar atii</w>
c old</w>
cit ing</w>
J e
s ed</w>
I N
occ up
Sch engen</w>
S in
B enn
prim easca</w>
dem n
pros per
suggest s</w>
at ing
Bal timore</w>
tran zit
ade i</w>
P M</w>
El iz
ren ce</w>
anum ita</w>
improv ed</w>
effici ency</w>
del iv
critic ism</w>
ref er</w>
l as</w>
sublini ez</w>
institut iile</w>
hou se
organiz ata</w>
ip ul
constr uit</w>
y o</w>
ig u
her self</w>
att le</w>
ann y</w>
b ord</w>
acel easi</w>
F und
Ag ency</w>
rev enit</w>
g lum
tend inta</w>
h ol</w>
a z</w>
T w
B lo
princi ples</w>
pret uri</w>
m ale</w>
H o
w est
rel or</w>
cunos cuta</w>
str i
is ment</w>
un employment</w>
b i</w>
R ed</w>
vorb esc</w>
ordin ea</w>
al aturat</w>
Med ia</w>
Cam bridge</w>
institut ii</w>
K erry</w>
under standing</w>
propriet ate</w>
object ive</w>
most en
fin ish</w>
apar at</w>
Presed int
D an</w>
club ului</w>
ow ned</w>
el ului</w>
compl eta</w>
establ ish</w>
esent iala</w>
supraveg here</w>
sond aj</w>
scre en</w>
Min utes</w>
titl ul</w>
iz buc
Ro ad</w>
pat h</w>
dator ia</w>
co recta</w>
A D
supraveg h
situ atii</w>
prof und</w>
lar g</w>
excel lent</w>
el la</w>
an na</w>
6 3</w>
spec iale</w>
s man</w>
att or
ris on</w>
insur ance</w>
il i</w>
gu ys</w>
co stul</w>
cl ean</w>
tel efo
del iver</w>
crit ica</w>
t one</w>
strain atate</w>
sist er</w>
rema ined</w>
op pon
ar bit
Char l
B irm
monitor izare</w>
require ments</w>
ins ot
urg ent</w>
p est
C ook</w>
w an</w>
energet ice</w>
energ iei</w>
ma d</w>
he at</w>
M ah
capit anul</w>
banc ile</w>
av a</w>
aprob at</w>
secur itatii</w>
7 2</w>
immedi ate</w>
t le</w>
serv ing</w>
rel atii</w>
it ali
folos i</w>
eas ier</w>
credi bil
an ivers
O liv
uri as</w>
p auza</w>
rec rut
lin ist
pl ece</w>
approv al</w>
gol f</w>
ar en</w>
Qa eda</w>
elim ina</w>
elabor at</w>
b ell</w>
Eliz abeth</w>
9 00</w>
pres ence</w>
j ih
ir ing</w>
7 7</w>
t ask</w>
respect a</w>
report edly</w>
G i
re rs</w>
surv iv
folos ind</w>
ick ets</w>
ceil alti</w>
L e</w>
B os
popul ar
pacient ii</w>
on going</w>
happ ens</w>
fur t
lim it</w>
es ec</w>
activ itate</w>
ros o</w>
we ar</w>
H uman</w>
lu ate</w>
fash ion</w>
caracter ist
ol ic</w>
bigg er</w>
Oh io</w>
to ward</w>
s ora</w>
our selves</w>
arm ing</w>
S to
L au
num arat</w>
exp ensive</w>
er o
defe at</w>
s pread</w>
jud ic
tur ning</w>
Har v
Alex ander</w>
retr ag
Bar roso</w>
comport ament</w>
K h
pr izon
t ul
agl om
oc cur
sc ap
maint ain</w>
ing ro
D ef
improv ing</w>
con dem
al ei</w>
vulner able</w>
ma in
iel d</w>
surg ery</w>
m s</w>
ultim ately</w>
tin a</w>
m ani</w>
comentar iile</w>
great est</w>
firm e</w>
ear ch</w>
sc ore</w>
min or</w>
extern a</w>
d au</w>
Min istr
re moved</w>
ap rec
aj ute</w>
C asa</w>
retr as</w>
mot or
ent r
t inta</w>
repres ents</w>
presup une</w>
Sh ow</w>
O per
dispar ut</w>
all as</w>
vorb este</w>
afac ere</w>
M are</w>
patrul ea</w>
apar ent</w>
prop er</w>
efici ente</w>
Amaz on</w>
w ick</w>
od at</w>
barb atul</w>
av ara</w>
comput er</w>
associ ated</w>
ing re
semnific ative</w>
M en
m ate</w>
con ver
c oc
g oods</w>
wor l
problem elor</w>
ion arii</w>
wit n
m ere
surv ey</w>
pr ag
D er
5 9</w>
il li
equip ment</w>
t ig
plat forma</w>
j ail</w>
K y
republic ani</w>
Inst agram</w>
W all
t u
oric ar
organ isation</w>
econom ii</w>
al atura</w>
str ict</w>
prior itate</w>
im ob
exper tii</w>
beaut iful</w>
U ber</w>
Tunis ia</w>
Ir ish</w>
D evel
exercit iu</w>
aleg erilor</w>
Pr im
re min
com fort
b ere</w>
T ra
K ard
stabil i</w>
ocaz ie</w>
al led</w>
T ai
writ er</w>
tr ic
rel ation</w>
Col lege</w>
coll ection</w>
D ow
joc ului</w>
int or
contribut ion</w>
se as
h es</w>
teat ru</w>
sk ills</w>
britan ici</w>
proced ures</w>
comb at</w>
cere re</w>
intreprind erilor</w>
ent ry</w>
Cro atia</w>
ab o
Tr an
s ong</w>
renunt at</w>
in loc
ide as</w>
cl are</w>
1 ,000</w>
teror iste</w>
dis curs</w>
standar dele</w>
interest ed</w>
oar elor</w>
co ast</w>
av es</w>
announc ement</w>
6 8</w>
client i</w>
sp ot
A ber
w illing</w>
vinov at</w>
sufici ente</w>
lar s</w>
An d
f low
cumpar at</w>
atac at</w>
scol ile</w>
ro g
gaz d
ast ers</w>
Val ley</w>
wal king</w>
u fund
or ase</w>
integr ation</w>
disput a</w>
champ ion</w>
Gre g</w>
tres s</w>
str az
judec atorul</w>
Christ ie</w>
videoc lip
n ations</w>
deoseb ire</w>
ar ia</w>
M et
ul y</w>
et ica</w>
M an</w>
pati ent</w>
con ect
B i
stor m</w>
prez ident
near by</w>
col lege</w>
restr uctur
S o
gar ian</w>
exerc ise</w>
Rom a</w>
tin erilor</w>
nivel uri</w>
min ster</w>
ip ped</w>
fabr ica</w>
Af fairs</w>
lans area</w>
discrimin ation</w>
I A</w>
Dumnez eu</w>
ste in</w>
respect iv</w>
pr oud</w>
instrum ente</w>
controvers ial</w>
conf ident</w>
victim a</w>
n al</w>
Just in</w>
A F</w>
des ign
camp aniei</w>
record s</w>
nor oc
hosp it
arun ca</w>
activ itati</w>
Br ad
unt ing</w>
rev ol
milit ara</w>
met eor
char ity</w>
def ense</w>
an z</w>
int ai</w>
Devel op
expl or
degre e</w>
conc ept</w>
l eng
im per
i Ph
ment ion</w>
happ ening</w>
famil ii</w>
f ly</w>
M etr
declar atia</w>
aprop ie</w>
requ ires</w>
r oc
part nership</w>
organis ations</w>
gen u
determin a</w>
av ionul</w>
of t</w>
n one</w>
cr imes</w>
CE O</w>
provoc ari</w>
intim id
est s</w>
semnific ativa</w>
comprom ise</w>
cel ei</w>
min un
yp t</w>
aprob area</w>
determin ed</w>
c unost
Rad io</w>
surpr ise</w>
se as</w>
produc atorul</w>
potent ially</w>
ion ship</w>
desch idere</w>
P R
infiint at</w>
el ic
car ii</w>
renunt e</w>
re duca</w>
k shire</w>
ad or</w>
zon ei</w>
s ized</w>
mar ii</w>
baz at</w>
fac and</w>
decl ined</w>
V ar
govern ance</w>
red use</w>
financ ing</w>
exper ti</w>
direct ia</w>
am az
Hosp ital</w>
plan uri</w>
St even</w>
terr itory</w>
ma ker</w>
author ity</w>
Zi ua</w>
pr a
organiz atia</w>
sing er</w>
con grat
anc ing</w>
s low</w>
experi enced</w>
4 0
for d
D I</w>
6 2</w>
uc ig
K os
w ond
ce ara</w>
resurs ele</w>
mod ului</w>
cart i</w>
bot tom</w>
bor ne</w>
J .</w>
w ed
venit urile</w>
e astern</w>
conv inc
Sing ap
M I</w>
pun em</w>
Rus iei</w>
M uz
F ir
D or
ist ol</w>
d i</w>
pos itions</w>
Democr at</w>
sc ufund
k ne
emerg ed</w>
accel er
R ang
Mar ia</w>
Ch annel</w>
teritor iul</w>
reas on
p ap
canc el
bo at</w>
aj ung</w>
R oss</w>
we ak
sufer a</w>
ent al</w>
fost ului</w>
appar ently</w>
us on</w>
avoc atul</w>
N ep
pierd ere</w>
mot ion</w>
Feder al</w>
B ig</w>
pos es</w>
ne i
f uner
el les</w>
ear ed</w>
in al
S lov
on i</w>
intro dus</w>
deput ati</w>
vo astra</w>
sim te</w>
gol uri</w>
ag gress
pl enty</w>
at ically</w>
R od
to x
investit iile</w>
Tor onto</w>
refer inta</w>
S ource</w>
Eg ip
6 4</w>
monitor ing</w>
raspun s
dur at</w>
suport erii</w>
ress ing</w>
studi es</w>
Reg atului</w>
G aza</w>
sm aller</w>
M arg
pre ia</w>
fif th</w>
feme ia</w>
ep h</w>
aplic area</w>
J our
mean ing</w>
gand it</w>
acuz are</w>
ast ing</w>
West minster</w>
parli amentary</w>
dis cursul</w>
re te
Reg ina</w>
scris oare</w>
reduc tion</w>
act iunea</w>
west ern</w>
or ded</w>
tre aca</w>
ic ult
Jam ie</w>
I B</w>
interest ing</w>
ess ing</w>
Kard ash
sem i</w>
rete aua</w>
ens uring</w>
ta int
gr and</w>
ez ia</w>
societ atii</w>
ol i</w>
en sa</w>
mentin erea</w>
j ap
ere lor</w>
adj unct</w>
tr atat</w>
foot age</w>
exist enta</w>
Gr and</w>
Eg ypt</w>
gu y</w>
electr on
inquir y</w>
compan iilor</w>
S ud
Jap anese</w>
tent ativa</w>
relev at</w>
iversit atii</w>
h id
Ir anul</w>
r av
feder ale</w>
cre eaza</w>
D .C.</w>
dispon ibil
Republ ica</w>
f ani</w>
en ko</w>
club s</w>
a x</w>
Yo ung</w>
Y ou</w>
F al
dec es
Ed iting</w>
profes orul</w>
viz itat</w>
utiliz are</w>
cy cl
Turk ish</w>
B ut
st arul</w>
ab at
Serb ia</w>
cal itatea</w>
opol it
iz i</w>
gre va</w>
rapoart ele</w>
un ce</w>
desfas oara</w>
Ferg uson</w>
prof ile</w>
fin ale</w>
ofici ali</w>
import anti</w>
re jected</w>
nic iun
istor ic</w>
fe ature</w>
X i</w>
or dered</w>
buil dings</w>
sc ut
s ets</w>
reg ener
g in</w>
efect ele</w>
z ah
lig a</w>
supliment ara</w>
resc ue</w>
rel ativ</w>
Stad ium</w>
ingre di
fi red</w>
Br uce</w>
yo ur
s ant
re tail
f ond</w>
priv ata</w>
pl ease</w>
mar i
m uri</w>
S E</w>
Hou ston</w>
involv ing</w>
consum atorii</w>
mes ajul</w>
tourn ament</w>
pris es</w>
gan desc</w>
fer ov
arr ang
tr uth</w>
ag an</w>
dezvalu ie</w>
viz eaza</w>
tin ere</w>
afect a</w>
B ay
ex press</w>
su icide</w>
jap on
T es
J oc
reduc eri</w>
industr ie</w>
dep asit</w>
der anj
ran iti</w>
enforc ement</w>
b orders</w>
difer ita</w>
cat ch</w>
199 0</w>
nei ther</w>
imp oss
deter ior
other wise</w>
la b</w>
ing in
ab les</w>
en able</w>
Singap ore</w>
solut ions</w>
an x
aleg erea</w>
al erg
.com .</w>
per ce
V iet
public ului</w>
prop erly</w>
l apt
com miss
pl in</w>
iv elor</w>
conserv ative</w>
Y ear</w>
spokes woman</w>
instrum ents</w>
expl ain</w>
consider ing</w>
vot a</w>
v is</w>
op on
partener iat</w>
qu ick</w>
plac ut</w>
inteleg ere</w>
heal th
exp ans
am in
afl am</w>
War ner</w>
L .
Belar us</w>
vi it
ol ele</w>
n econ
mat ches</w>
ass ets</w>
amend ments</w>
b ic
ament elor</w>
to w
le g</w>
eas ily</w>
rul ed</w>
perm it</w>
mon eda</w>
firm s</w>
et apa</w>
co s</w>
castig e</w>
O k
B anc
urb an</w>
stud entii</w>
caut area</w>
razbo iului</w>
Depart amentului</w>
streng then</w>
sent ence</w>
p at</w>
fi ec
societ ate</w>
f ishing</w>
film ului</w>
curren cy</w>
P L</w>
al uc
parlament ar</w>
milit ants</w>
Nor thern</w>
Ju stit
Develop ment</w>
tol er
opozit ie</w>
atr ib
w ake</w>
tot ala</w>
studi o</w>
histor ic</w>
St ew
w inter</w>
un less</w>
mo un
K er
ir t</w>
div iz
6 1</w>
afl ati</w>
I II</w>
dol lars</w>
con tain
cho ose</w>
S ky</w>
reprezent at</w>
cal end
apar arii</w>
tur n
st ret
se ats</w>
intreb arii</w>
extern al</w>
artic ole</w>
Pr oc
rec orded</w>
p amant</w>
p a
substant ial</w>
sec unde</w>
U l
young er</w>
ou red</w>
her o
evalu area</w>
ent ilor</w>
op e</w>
ing het
dest e</w>
distr ict</w>
N BA</w>
sprij ine</w>
proiect ului</w>
o di
ast ed</w>
In s
tre at</w>
traf fic
l abor
lear ning</w>
feric it</w>
reduc ing</w>
ir ilor</w>
tou ch</w>
inc rez
at o</w>
situ atiei</w>
fab ric
deter mine</w>
corespun zator</w>
apar t</w>
uri asa</w>
infrastruct ura</w>
D C</w>
Res earch</w>
vacc in
elector ala</w>
aleg atorii</w>
wr ite</w>
locu itorii</w>
larg er</w>
inter n</w>
cif re</w>
ex ter
continu ing</w>
Kenn edy</w>
mom ente</w>
appl ied</w>
teror ismului</w>
gre se
constr ui</w>
targ eted</w>
ner ab
par ul</w>
con spir
Fair fax</w>
F if
w ind</w>
v or
in alta</w>
homosex u
tr uly</w>
human itarian</w>
g ain</w>
h asn</w>
under stood</w>
strong ly</w>
ins em
grese ala</w>
assess ment</w>
Grup ul</w>
Afgan istan</w>
struct ure</w>
jud ici
6 9</w>
point ed</w>
Clu b</w>
str aluc
f ighters</w>
diag nos
com anda</w>
alco hol</w>
Ban ca</w>
hop ing</w>
W e</w>
D et
succes ul</w>
permit eti</w>
i este</w>
fl at</w>
d ul</w>
N ationala</w>
susp ended</w>
quart ers</w>
as ing</w>
spok en</w>
pol u
J ean</w>
re present</w>
mar c
Dr .</w>
prim avara</w>
leg aturi</w>
su m</w>
ep ide
e ating</w>
consolid area</w>
afac erile</w>
abil itate</w>
urmar it</w>
lung i</w>
igh ter</w>
efectu ate</w>
am anuntul</w>
air s</w>
organiz ate</w>
ans as</w>
wh ere
st able</w>
intreprind eri</w>
fin als</w>
Sp it
itud inea</w>
ad una</w>
ore asca</w>
on iei</w>
not a</w>
gener ally</w>
agric ole</w>
schimb ul</w>
il ton</w>
est ate</w>
S ant
wel fare</w>
G ary</w>
um in
strugg ling</w>
sec olul</w>
f etele</w>
um s</w>
s ought</w>
im ir</w>
gr y</w>
de lor</w>
bom b</w>
acknow led
fiec ar
alco ol</w>
Columb ia</w>
ly n</w>
el ine</w>
7 1</w>
in arm
B iden</w>
plas at</w>
inv ata</w>
sk in</w>
secon ds</w>
en um
dezvolt arii</w>
p aint
ger man</w>
chil d
un likely</w>
t ies</w>
inch iderea</w>
ident ificat</w>
ide lines</w>
r ide</w>
li ot
h o
g ers</w>
How ard</w>
inclu d</w>
cal m</w>
agent ii</w>
Stew art</w>
Fr an
pre n
eveniment ele</w>
Pe ople</w>
Di ego</w>
leg ally</w>
Energ y</w>
Christ op
jurid ic</w>
govern or</w>
australi ana</w>
Th ail
ef ficient</w>
oc ean</w>
jour ney</w>
activ itatii</w>
transport ul</w>
Corb yn</w>
ocaz ia</w>
nivel urile</w>
N ich
A T</w>
ner v
leg ale</w>
car eia</w>
Veg as</w>
rema ining</w>
model ul</w>
list ed</w>
ind ica</w>
cant at</w>
r us</w>
ileg al</w>
f at
e ans</w>
cop y
schim be</w>
he art
art ific
lin k</w>
crit ics</w>
S i
saptam anii</w>
reg ionale</w>
ov o</w>
contrib ute</w>
on t
buget ului</w>
bu ying</w>
Soc ial</w>
D na</w>
pract ices</w>
iPh one</w>
sol ar</w>
gu ard</w>
E C</w>
B ah
sl ightly</w>
gro unds</w>
esent iale</w>
ap olog
amest ec</w>
u re
imposs ible</w>
fin dings</w>
Fin anc
sol id</w>
pacient i</w>
met al</w>
W ol
vis a</w>
p son</w>
ofici ala</w>
v ast</w>
oportun itati</w>
iub esc</w>
favour ite</w>
f f
I R
medic amente</w>
init ially</w>
indepart at</w>
dom nia</w>
deput y</w>
Re al</w>
mar ile</w>
intr area</w>
sched uled</w>
direct ie</w>
ch air</w>
ant ing</w>
spr ing</w>
prior ities</w>
prab us
dific ile</w>
asigur ari</w>
t uri</w>
Jer sey</w>
suc ce
rug by</w>
mat ei</w>
Malays ia</w>
sentiment ul</w>
rad ical</w>
inc or
ambit ious</w>
C ur
us ul</w>
St .</w>
Mc G
de pozit
at en</w>
re asca</w>
pl ants</w>
fl ag
b ate</w>
C os
C i
discuss ed</w>
Michel le</w>
Lig ii</w>
actu alul</w>
Mi ami</w>
jih ad
it ting</w>
R ol
Al l</w>
us sel
semn ul</w>
A M
short ly</w>
for get</w>
candid ati</w>
c ore</w>
S co
E arth</w>
lear ned</w>
echip ele</w>
pre l
iv i</w>
descr ie</w>
milit ar</w>
ir lan
head s</w>
acc epta</w>
ab ol
sold ati</w>
ro y
de ser
w on
premi er</w>
Mar yland</w>
Ex tern
desch ise</w>
conc ept
ter te</w>
ph y</w>
Grec iei</w>
ex ag
V lad
Cam era</w>
Benn ett</w>
priet enul</w>
olog ica</w>
impied ica</w>
av ioanele</w>
tehnolog ia</w>
tax pay
rezist enta</w>
auto bu
intar zi
ide i</w>
sex uala</w>
r ab
prosecut ors</w>
G ir
y st
ne ut
iar na</w>
feric ire</w>
expect ations</w>
intel eg</w>
extin derea</w>
amest ec
trim ite</w>
independ ence</w>
concuren ta</w>
G ab
urg ed</w>
sistem ele</w>
reg iuni</w>
impres ion
asc un
lob by</w>
h anded</w>
P or
sle ep</w>
rec ru
prezent ate</w>
driv en</w>
activ a</w>
Supre ma</w>
Camp bell</w>
f ears</w>
Rob er
s wit
refer ire</w>
ogr aph
man e</w>
cupl ul</w>
ad ly</w>
streng th</w>
shar ing</w>
cost urilor</w>
man care</w>
G od</w>
prom ised</w>
insist at</w>
i fer
deal ing</w>
Jos eph</w>
pay ment</w>
anc el
G old</w>
tel ls</w>
n am</w>
k ick</w>
i are</w>
dezvolt at</w>
cont ine</w>
ad uc
sim ti</w>
sen z
famil iar</w>
1 20</w>
gaz du
eg al</w>
bl ing</w>
R ev
J enn
tal ent</w>
ire ly</w>
ed itie</w>
ca using</w>
L yn
t are</w>
princip alele</w>
k ovic</w>
numer ar</w>
incer care</w>
head ing</w>
end or
E duc
urm atorii</w>
tan ara</w>
spun em</w>
razbo iul</w>
ong s</w>
libert ate</w>
gre w</w>
be ach</w>
am uz
pre lua</w>
ingro zit
ent irely</w>
dr ink</w>
cut ting</w>
ban ned</w>
an ian</w>
P i
spec ies</w>
li ance</w>
b oss</w>
ach ers</w>
Rob inson</w>
w age</w>
v ed</w>
dezbat eri</w>
report erilor</w>
P ear
rel atively</w>
pul led</w>
prel imin
dub la</w>
S pr
up s</w>
the red</w>
pens ion</w>
cost uri</w>
complet ed</w>
priv ileg
ju ana</w>
Mur phy</w>
F ol
Cap ital</w>
st area</w>
ran ean</w>
press ion</w>
pregat iti</w>
B ag
it ems</w>
extin de</w>
rel atia</w>
inch ir
bol a</w>
min ut</w>
ick y</w>
artic le</w>
B il
conduc ted</w>
fr uct
M aj
sc ar
dep inde</w>
analy sts</w>
Lib ya</w>
turne u</w>
fact ors</w>
Thom pson</w>
r atele</w>
plec a</w>
ment ion
it area</w>
grad u
W om
Phil ip</w>
Fr ank
s eg
ph ones</w>
fond urilor</w>
C um
ut in
tab ara</w>
scr ise</w>
reg ret</w>
p ere
gu st
manif est
at re</w>
sp ani
A gent
ver se</w>
stu ff</w>
n ie</w>
crit ici</w>
impl ement</w>
strain i</w>
rel atie</w>
q i</w>
ip ot
inh o</w>
Partid ul</w>
consider ata</w>
ret ail</w>
produc atorii</w>
ingrij ire</w>
ext ent</w>
s mart
lu ati</w>
abord a</w>
A T
commun ication</w>
sem ne</w>
protest at
in se</w>
ig ned</w>
pres iunea</w>
w ins</w>
el ement
sur se</w>
societat ea</w>
ex prima</w>
consist ent</w>
As ian</w>
w ide
mas cul
incredi bil</w>
fer m</w>
et ice</w>
sh e
incerc am</w>
f illed</w>
li j
re move</w>
fo under</w>
discuss ions</w>
strong er</w>
f atal</w>
com ment
potenti alul</w>
fo rest
deliv ered</w>
P S</w>
ab sur
Nig eria</w>
inst anta</w>
ident ify</w>
con stat
Pro f
vec he</w>
poss ibly</w>
copy right</w>
trai este</w>
atiun i</w>
S af
An ton
7 4</w>
l ement</w>
abord at</w>
prom oting</w>
out come</w>
migr ation</w>
U K
z ii</w>
t il
om b
h i
cur tii</w>
ans ambl
it ei</w>
E st
stabil ite</w>
cut i</w>
contr ast</w>
victim elor</w>
sh ots</w>
produc ers</w>
op pos
ancel lor</w>
Swe den</w>
K ore
your self</w>
no ii</w>
co al</w>
al ing</w>
L ind
w ine</w>
vis itors</w>
purt at</w>
re au</w>
aspect s</w>
multum it</w>
Ne il</w>
C z
specific ally</w>
ident ity</w>
ic ata</w>
car n
bir ocr
I t</w>
obvi ous</w>
T ok
A S</w>
ul at</w>
sarb ator
intoar c
fe els</w>
comis ie</w>
af fect
activ itatile</w>
n iste</w>
maxim um</w>
investig ators</w>
dang er</w>
pi ete</w>
N atiunilor</w>
shad ow</w>
lid eri</w>
adecv ate</w>
ac tr
trai asca</w>
cheltuiel ilor</w>
cal dura</w>
ur ala</w>
start s</w>
go l</w>
g ot
ash ing</w>
signific antly</w>
M ul
M ass
pro asta</w>
obtin erea</w>
L am
ang ing</w>
intaln irea</w>
i erii</w>
guvern ele</w>
de als</w>
occur red</w>
ech it
car ora</w>
uni que</w>
ess ions</w>
el ea</w>
b ul</w>
alt ies</w>
. uk</w>
surs elor</w>
suf ficient</w>
res ist
di ox
de mo
consil iul</w>
prev eni</w>
friend ly</w>
Mediter ranean</w>
enter prises</w>
sy n
ish es</w>
Gr ay</w>
pr int
lucr atorii</w>
in fer
aff ect</w>
wide ly</w>
um ed</w>
ul os</w>
row ing</w>
lu ata</w>
E bola</w>
og an</w>
corpor ate</w>
client ilor</w>
v rea</w>
ess or</w>
Bar b
regul i</w>
recuno aste</w>
op posed</w>
convict ed</w>
ro ads</w>
priet en
Palest inian</w>
Bru x
rev end
Braz il</w>
u im</w>
e ers</w>
cel al
celal alt</w>
tr up
st ag
servici ului</w>
construct ia</w>
Mon t
Can adian</w>
B on
thre ats</w>
r ast
pur pose</w>
propun erile</w>
prim este</w>
fotograf iat</w>
et ings</w>
For ce</w>
ent ered</w>
Cr uz</w>
susp ected</w>
fl ying</w>
aw ard</w>
at ri
reviz uire</w>
po stat</w>
P ot
Brux elles</w>
tax es</w>
mari juana</w>
crit ic</w>
cre ative</w>
ca uses</w>
photograp h</w>
mom ents</w>
Pro gram
sent inta</w>
sal va</w>
lin ed</w>
ik a</w>
aut onom
anim alelor</w>
un ice</w>
s y</w>
organiz atie</w>
it z</w>
an ne</w>
199 7</w>
re action</w>
T ory</w>
Jour nal</w>
trim it
im er</w>
comfort able</w>
part ener</w>
g ap</w>
anter ioara</w>
8 9</w>
worl d
interes ele</w>
M ot
Hamp shire</w>
leav es</w>
pic ked</w>
ez u
Se attle</w>
prov ed</w>
pasag eri</w>
lucr atorilor</w>
insp ired</w>
dov e
R i
film s</w>
cre w</w>
varst e</w>
traf ic</w>
resurs elor</w>
af ford</w>
pozit ive</w>
cuv intele</w>
ap preci
Wat ch</w>
At lantic</w>
represent atives</w>
divers ity</w>
parlament arii</w>
coez iune</w>
surprin zator</w>
electr onic</w>
el ong</w>
wor ried</w>
incident ul</w>
ie v</w>
fl ag</w>
bo und</w>
Ph il</w>
st ig
judet ul</w>
int ense</w>
dem ands</w>
becom es</w>
Lond rei</w>
Jen ner</w>
Christop her</w>
sur face</w>
su e
mon e
itor ial</w>
d il
struct ura</w>
respect iva</w>
invest itorii</w>
es cal
d am</w>
C ast
sav ings</w>
N A</w>
Mus lim
tul bur
negoci erilor</w>
dis h</w>
protest s</w>
propriet ati</w>
no ului</w>
com mission</w>
ca ine</w>
activ ists</w>
G ib
D ave</w>
dec ent</w>
S imp
M our
mentin ut</w>
gan di
disput e</w>
att end</w>
ur ate</w>
hel ps</w>
L ev
Fir st</w>
ser ia</w>
neg ativ</w>
id i
har d
att ended</w>
eg u
intre bar
l ich
cond uca</w>
att acked</w>
Med ical</w>
8 4</w>
rec ept
imagin ile</w>
ad opt</w>
N L</w>
k ur
ist ice</w>
compreh ensive</w>
div id
argu ed</w>
a del
Mosco w</w>
I T
D ol
7 3</w>
zil ele</w>
part ici
dis cre
diplom atic</w>
at edly</w>
s ection</w>
demon st
crit eria</w>
ar da</w>
Br ussel
Du ke</w>
sto res</w>
retr age</w>
e on</w>
Dr ag
we b</w>
ash es</w>
us et
ibil i</w>
con ven
B lu
marit ime</w>
b at</w>
vech iul</w>
b ly</w>
Is is</w>
Brussel s</w>
enc ing</w>
as es</w>
aliz a</w>
K al
tem eri</w>
ivers ary</w>
adopt ion</w>
abil ities</w>
st ated</w>
ret ire
lucr arile</w>
competit ia</w>
Ne agra</w>
ex hib
bl es</w>
ad anc
amend ment</w>
Stu art</w>
pri or</w>
mar ks</w>
Bro ok
rel ating</w>
asigur area</w>
A m</w>
vill age</w>
adop ta</w>
stat utul</w>
scient ific</w>
el se
tr igg
semn al</w>
dimens iunea</w>
Isl am</w>
mar ine</w>
ar mon
adev arata</w>
be asca</w>
P T</w>
desc ur
T am
k son</w>
fl ights</w>
com ert</w>
Nich ol
Mo h
Bang la
st au</w>
expl odat</w>
centr ale</w>
af ric
ul are</w>
lo an</w>
T ri
twe et</w>
pr on
folos ite</w>
casator it</w>
un k</w>
invest igh
cor rect
attor ney</w>
involv ement</w>
amb er</w>
aleg e</w>
T er
E R
C iv
eren t</w>
asp ir
gr anted</w>
elimin at</w>
e an
A ud
Regul amentul</w>
sup us</w>
strugg le</w>
petrol ului</w>
control led</w>
trou ble</w>
se es</w>
iv ity</w>
comis ia</w>
act e</w>
sen ator</w>
nucle ara</w>
i us</w>
im bl
elector al</w>
dep ort
a is</w>
re y</w>
p up
inh ua</w>
Muslim s</w>
A z
oportun itate</w>
exp ort</w>
employ ed</w>
X inhua</w>
lin s</w>
bor at</w>
az e</w>
oblig ator
incant at</w>
g rec
else where</w>
cre am</w>
ro ute</w>
detin ut</w>
all ing</w>
um ar</w>
ult um
retur ning</w>
mess ages</w>
ed on</w>
dragost e</w>
ocup area</w>
leg i</w>
detal iile</w>
chest iunea</w>
agricult ure</w>
Vlad imir</w>
Consil iu</w>
me etings</w>
f e</w>
Ox ford</w>
D ut
el ib
be ar</w>
olv ed</w>
z id
s ending</w>
D allas</w>
8 8</w>
A ra
unt s</w>
push ed</w>
St ock
politic ian</w>
L oc
Conserv ative</w>
simp la</w>
trebu ia</w>
numer ous</w>
concer t</w>
Sher iff</w>
u iti</w>
str ans</w>
minor ity</w>
contribut ed</w>
str ang
facil ities</w>
199 8</w>
te acher</w>
rup t
um ana</w>
man age</w>
sh ift</w>
grab it</w>
fer a</w>
comprom is</w>
ac tress</w>
T as
Gre en
ton ight</w>
op ter</w>
jur y</w>
de cre
claim ing</w>
cain i</w>
su par
da un
accept ed</w>
Com it
t em</w>
sig ure</w>
scaz ute</w>
reg iz
journ alists</w>
agricult ura</w>
Mex ic</w>
ust in</w>
ordon at</w>
n el
fe es</w>
e u
di ab
consec inta</w>
test ing</w>
institut ional</w>
desfas urat</w>
br ief
prem iu</w>
pl imb
exper t
car uia</w>
threat ened</w>
lead s</w>
decl ine</w>
de asca</w>
conv ins</w>
N ev
er ata</w>
Birm ingham</w>
implement ed</w>
fall en</w>
ev ident
Trat atului</w>
ut il</w>
r ana</w>
nem ultum
def end</w>
r ail</w>
insu si</w>
h urt</w>
cuno ast
ciud at</w>
On line</w>
war m</w>
consider ate</w>
sinc er</w>
mechan ism</w>
m um</w>
ir ak
Distr ict</w>
B ob
lan de</w>
dur abila</w>
descr i
pi ele</w>
law yers</w>
unc er
l ers</w>
ext ended</w>
at inge</w>
capt ured</w>
Rez er
G ul
g os
comport amentul</w>
be t</w>
refug ee</w>
inal time</w>
constit uie</w>
angaj ament</w>
ad ult</w>
repe atedly</w>
every body</w>
diver se</w>
adopt e</w>
S ov
D oam
palest ini
contr o
cart ile</w>
campa ign
Hot el</w>
satis fact
re aching</w>
b our</w>
tax i</w>
sub vent
ch ances</w>
Tr ans
Occ ident
Cor p</w>
s ight</w>
de poz
c ents</w>
australi eni</w>
B T</w>
spati ul</w>
min a</w>
franc eza</w>
consider am</w>
furt una</w>
sh el
p tion</w>
fot bal
ins ar
enor m
conc ert
clos ure</w>
at ter</w>
pach etul</w>
main ly</w>
m anc
in stit
hous es</w>
g y
vis ited</w>
videoclip ul</w>
pol ls</w>
organiz atii</w>
ibil ities</w>
elimin ate</w>
Justit ie</w>
Hol lande</w>
s ons</w>
interes ant</w>
tab lo
poll ut
ism s</w>
voc e</w>
fr aud</w>
uf actu
re place</w>
lin ii</w>
de e
cont amin
uim itoare</w>
ro bot
man ufactu
fas cin
fal s
comb ined</w>
H IV</w>
tr op
pov esti</w>
ok o</w>
im m
fir st
bom bar
ann iversary</w>
Brazil ia</w>
di c</w>
cur tea</w>
bol i</w>
acuz ati</w>
pr ud
mar ked</w>
ar et</w>
Fo undation</w>
sprijin irea</w>
sistem e</w>
P C</w>
prop une</w>
mobil a</w>
domn ul</w>
ch ain</w>
actr ita</w>
Br y
tip ul</w>
ough ly</w>
gener atie</w>
At l
utiliz a</w>
tre n</w>
qu ate</w>
R az
iv ei</w>
fe wer</w>
cabin et</w>
eg alitate</w>
asc uns</w>
A I
prop ag
desc ar
accept at</w>
Mac ed
p it
Kardash ian</w>
Iran ului</w>
p ip
gest ionarea</w>
tr as</w>
r atat</w>
ofici ale</w>
neg at</w>
mot or</w>
ingrijor ati</w>
N ik
o ului</w>
tre ime</w>
i asca</w>
blo g
D ev
uf f
supliment ar</w>
comert ului</w>
vec in
ren t
realiz a</w>
Banc ii</w>
Al b
Le ic
sh opping</w>
insar cin
democr at</w>
c azut</w>
T i
yo uth</w>
prov isions</w>
camp ion
b y
anivers are</w>
ind ig
ep ut</w>
pici or</w>
Mic ros
Institut ul</w>
mov es</w>
ment ioneaza</w>
cl ient</w>
C anc
Austr ia</w>
H an
C y
sc urg
vehic ule</w>
over seas</w>
opt iune</w>
ip ping</w>
f ers</w>
7 8</w>
prez ece</w>
pacient ilor</w>
co inc
b ordul</w>
transpar ent</w>
put ini</w>
aleg ere</w>
UK IP</w>
relig ioase</w>
neg lij
N i
D an
ins ista</w>
gro wn</w>
viet ile</w>
e holders</w>
T ig
Ab u</w>
v r
standar de</w>
chin ez</w>
Gre at</w>
program s</w>
Far age</w>
vre mea</w>
oo t</w>
dov ez
S pe
H ung
opozit iei</w>
attemp ts</w>
dee ply</w>
sect ors</w>
l osses</w>
ere n</w>
blo g</w>
D on</w>
ven ue</w>
im on
i ents</w>
es h
Campion ilor</w>
re plac
er ine</w>
cel ls</w>
am in</w>
Sw ed
Be ach</w>
adev arul</w>
operatiun ile</w>
Micros oft</w>
.. ..</w>
ce al
G all
y ards</w>
us oara</w>
sp ac
it able</w>
observ at</w>
ad ults</w>
viz iune</w>
s now</w>
insem na</w>
dre am</w>
D ur
vers iune</w>
organiz atiei</w>
olog ii</w>
d iz
v enta</w>
mand ate</w>
us er</w>
J es
El l
fa ith</w>
es ec
S qu
r at</w>
pescu it</w>
decl ansat</w>
concl usion</w>
al ed</w>
All en</w>
he aded</w>
H ome</w>
opt iuni</w>
od d</w>
P R</w>
up dated</w>
respon ded</w>
Ven ezu
S av
H y
wor ker</w>
rel atiilor</w>
refer red</w>
ceal alta</w>
h ai</w>
entuz ias
a proviz
B urg
pop orul</w>
p un</w>
sc apa</w>
locu itor</w>
Swed ish</w>
E astern</w>
u itati</w>
prof unda</w>
man u
initi atives</w>
cast le</w>
Sh a
surpr ised</w>
reli ef</w>
usur inta</w>
s un</w>
public ly</w>
frum oasa</w>
fail ing</w>
copil ului</w>
taint y</w>
ep ing</w>
C S
A A</w>
si x
int unec
dev ices</w>
par c</w>
first ly</w>
con fort
Cz ech</w>
ph ere</w>
individ uale</w>
biser ica</w>
dis play</w>
aim s</w>
W imbl
tre cere</w>
tem a</w>
in ner</w>
contin ent</w>
Tok yo</w>
plat form</w>
immigr ants</w>
atac urilor</w>
Viet nam</w>
Financ ial</w>
ui esc</w>
t ei</w>
rec ordul</w>
eveniment ul</w>
de ep
bro ad</w>
not es</w>
ear nings</w>
J ess
F am
W eb
str ange</w>
materi ale</w>
j et</w>
Mour inho</w>
Bl ue</w>
Ed ward</w>
zg om
reg iunile</w>
prof its</w>
parint i</w>
co re
am ana</w>
world wide</w>
tr upa</w>
oric are</w>
Ch e
Secur itate</w>
pan el</w>
as ks</w>
ac op
Rog er</w>
sum mit
mor al</w>
furn izarea</w>
str ig
serv es</w>
mar cat</w>
nev inov
l au
fant astic</w>
arest ati</w>
sup posed</w>
p ed
T im
A gre
A M</w>
em an
car ei</w>
s ol</w>
frum os</w>
Econom ic</w>
D .</w>
trag ic</w>
spectac olul</w>
broad cast
199 5</w>
uc ise</w>
natiun i</w>
te en</w>
Austral ians</w>
var ful</w>
infiint area</w>
Iran ian</w>
201 8</w>
un de
prom ise</w>
milit ant</w>
w ave</w>
tem erile</w>
t ai
doz ens</w>
us al
per cept
Spit alul</w>
joc urile</w>
io t</w>
inch ide</w>
hand ic
cre deti</w>
anum it</w>
Simp son</w>
pr anz</w>
Angel a</w>
1 2.
model s</w>
invest ments</w>
inst ance</w>
al ba</w>
8 6</w>
pregat ita</w>
wat ched</w>
t es
bo y
act iunilor</w>
Cro wn</w>
p astra</w>
scaz uta</w>
mod uri</w>
ici ous</w>
g lo
A li
sug ar</w>
firm ele</w>
Ar my</w>
scr isa</w>
inform ed</w>
in accept
dev ice</w>
Wimbl edon</w>
Nep al</w>
princip ale</w>
pozit ii</w>
it age</w>
cunos c</w>
fo unded</w>
8 7</w>
responsabil itate</w>
licit atie</w>
l ordul</w>
brut al</w>
bog ati</w>
Col eg
ther ap
solidar itate</w>
ic ilor</w>
est y</w>
differen ces</w>
anu ala</w>
pe ace
jurid ice</w>
in at</w>
apar itia</w>
ant repre
ab uz</w>
0 5</w>
al ive</w>
wal ked</w>
prim ii</w>
g rea</w>
dep use</w>
constient i</w>
veg et
resp ing
Rub io</w>
Fond ul</w>
n r</w>
insist ed</w>
des h</w>
l ay</w>
I ord
f u
Lib ia</w>
re conc
incal care</w>
K ing
t ata</w>
sh ape</w>
s ofer
N .
pr ost</w>
amaz ing</w>
G h
te achers</w>
ne bun
min ing</w>
me at</w>
escap e</w>
salut at</w>
rev ista</w>
neg re</w>
mo on</w>
ileg ale</w>
docum ente</w>
P enn
Ar iz
kilomet ri</w>
bar ca</w>
man ner</w>
infl ation</w>
adecv ata</w>
person ala</w>
dr inking</w>
conserv atorii</w>
Saud ita</w>
regul ament</w>
pr ol
multim ea</w>
g ama</w>
foc uri</w>
ul der</w>
incon jur
ic y</w>
avert izeaza</w>
R E
Organiz atiei</w>
um n</w>
renunt a</w>
intern ation
i osi</w>
folos este</w>
de fici
brus c</w>
br ings</w>
H om
ear th
O val</w>
re iter
un itate</w>
profes ionala</w>
ke en</w>
ec r
concentr at</w>
propri u</w>
coll abor
A th
val orile</w>
s ion</w>
loc al
back ground</w>
prosp ect
act ori</w>
las and</w>
estim eaza</w>
depend enta</w>
Pak ist
O reg
tur ns</w>
tip uri</w>
sc ept
dificult ate</w>
U r
fierb inte</w>
consum ul</w>
b ag</w>
Br on
ofit erul</w>
ob os
lo ans</w>
is ul</w>
wh el
membr ilor</w>
lik es</w>
har mon
super ior</w>
stoc ks</w>
sc oring</w>
ow ed</w>
d ress</w>
cop e</w>
tain ment</w>
except ia</w>
Ariz ona</w>
part ide</w>
t ech</w>
propriet arii</w>
p itch</w>
ay er</w>
Centr ala</w>
ul l</w>
int i</w>
elector ale</w>
Tr av
tren d</w>
al ie</w>
op us</w>
efort ul</w>
s mart</w>
Cal if</w>
r urale</w>
put s</w>
push ing</w>
passeng er</w>
fisc ala</w>
ar i
simil ara</w>
mi x</w>
imp une</w>
um pl
ill ance</w>
d ir
b in</w>
G 20</w>
retire ment</w>
pre dat</w>
of ert
mon t</w>
M as
memb ership</w>
ear ned</w>
compet ente</w>
J ay</w>
Ara b</w>
n is
eng ine
No .
priv itoare</w>
ival ent</w>
H u
rece iving</w>
jo ining</w>
cut ie</w>
candid atul</w>
P C
198 0</w>
v s</w>
propriet arul</w>
nevo ia</w>
k id
fug it</w>
sh ore</w>
perio ade</w>
ert ies</w>
J im
su pusa</w>
st ick</w>
s ort
progres ul</w>
c ort
ad un
speci alist</w>
um bra</w>
heav ily</w>
gas ite</w>
automob ile</w>
ader area</w>
sub sequ
stra ine</w>
oc upe</w>
docum entele</w>
T A</w>
sug est
leg ala</w>
in dr
excel enta</w>
econom ies</w>
cen usa</w>
P ent
Doam na</w>
str azi</w>
legisl atiei</w>
T it
J ane</w>
benefic iile</w>
S un</w>
Is land</w>
Ima ge</w>
pl ant
electric ity</w>
bul l</w>
it em</w>
astept are</w>
windo w</w>
turne ul</w>
sh ut</w>
natiun ii</w>
bl ame</w>
ri er</w>
oc king</w>
fil ed</w>
fer ma</w>
A y
sent enced</w>
oper ate</w>
ex ist</w>
di recta</w>
traf icul</w>
it ure</w>
ec es</w>
aliment ara</w>
P ublic</w>
Ira qi</w>
Comp any</w>
vi eti</w>
norm ele</w>
im it
dator iei</w>
comb ate</w>
ur ist</w>
m uta</w>
comun itate</w>
L es
Es s
hol m</w>
buget are</w>
W ayne</w>
tel ec
s ing</w>
s and
mil k</w>
justit ie</w>
Sw ift</w>
uc ide</w>
popul atie</w>
ot ic</w>
investig ating</w>
din ner</w>
clad ire</w>
av eau</w>
adv ance</w>
sh r
sc or</w>
rad ac
progre s</w>
at ar</w>
US A</w>
R ud
Mark et</w>
B ell</w>
respect ive</w>
Su edia</w>
qu ake</w>
it t</w>
extin s</w>
concent reaza</w>
M ail
Ar m
u an</w>
secon dly</w>
part ile</w>
mes aje</w>
itch en</w>
convinc ed</w>
Aber de
tre cut
traf icului</w>
am antului</w>
ad uca</w>
Sen .</w>
m ort</w>
introduc tion</w>
Congres ului</w>
public ate</w>
neigh bor
inv est</w>
incet in
convers ation</w>
Nig el</w>
electr ic</w>
contr ad
cont eaza</w>
cast ig</w>
afac erilor</w>
Bus iness</w>
oar ecare</w>
no body</w>
man ipul
cost is
car ile</w>
tax ele</w>
respect e</w>
flu x
acord urile</w>
R ach
Kos ovo</w>
put ina</w>
mem ory</w>
h ate</w>
drept ului</w>
adel ph
B ren
Atl anta</w>
uc ky</w>
ock et</w>
C ow
pass ing</w>
of ens
improv ement</w>
8 3</w>
l ets</w>
l aid</w>
es uat</w>
V at
Mar c</w>
un anim
t ions</w>
organ ised</w>
ion ary</w>
act ie</w>
Phil adelph
sect orului</w>
pedep s
auz e</w>
al lies</w>
regul ile</w>
ot ed</w>
K ath
organiz ation</w>
o y</w>
af le</w>
Ken ya</w>
mat erie</w>
luc ky</w>
castig ator</w>
banc i</w>
1 1
ministr ului</w>
gest ionare</w>
construct ie</w>
trav elling</w>
ish op</w>
recommend ations</w>
gre le</w>
fi re
cult iv
comun itar</w>
popul ara</w>
fort elor</w>
establ ishment</w>
cover age</w>
Vict or
Philadelph ia</w>
vehic ul
sen atorul</w>
L as</w>
t ickets</w>
act ioneze</w>
consecut ive</w>
m area</w>
e o</w>
avoc atii</w>
Clar k</w>
val or
sens itive</w>
conn ect
ab ia</w>
regul arly</w>
procur orii</w>
bo d
Servic es</w>
reg ards</w>
f at</w>
ent it
em ente</w>
U C
7 6</w>
tour ism</w>
crit er
tre e</w>
transport a</w>
surve illance</w>
squ are</w>
cor rect</w>
program ele</w>
b acks</w>
saf egu
mot ivele</w>
lupt atori</w>
ingrijor at</w>
e ed</w>
Olymp ic</w>
reviz uirea</w>
no ilor</w>
incal carea</w>
recogn ise</w>
ident itate</w>
ide al</w>
H igh
surpr iza</w>
pre pare</w>
f low</w>
comp os
bour g</w>
Sp ec
Bangla desh</w>
9 8</w>
spl it</w>
secret ar</w>
itor ului</w>
control s</w>
conn ected</w>
intervent ion</w>
ens es</w>
bir th
avoc at</w>
s oar
health care</w>
domn ule</w>
D oug
mark et
prepar ing</w>
fi er</w>
terror ists</w>
pericul os</w>
l ots</w>
cor ner</w>
rezolut ia</w>
imob ili
form al</w>
ap ele</w>
R O</w>
D ub
politic ilor</w>
negoci eri</w>
forec ast</w>
em isa</w>
conclu ded</w>
ack ers</w>
Moham med</w>
ban king</w>
ansambl u</w>
Argent ina</w>
serv it</w>
i ati</w>
T his</w>
public ata</w>
it z
T erry</w>
Law rence</w>
K as
mult i
do ors</w>
dev in</w>
R ab
Hug hes</w>
prot oc
promov a</w>
desc uraj
cap able</w>
adopt ata</w>
7 9</w>
prov ince</w>
c iti</w>
recogn ition</w>
rap ide</w>
m inge</w>
compens ation</w>
ay a</w>
arm elor</w>
ud a</w>
cred inta</w>
Yor kshire</w>
salv at</w>
con venit</w>
venit ul</w>
tour ists</w>
spe aker</w>
regul a</w>
is ely</w>
hon est</w>
electr ice</w>
Marg aret</w>
Ac t
sig ura</w>
competitiv eness</w>
aeroport ul</w>
An na</w>
k g</w>
cy cle</w>
condit ie</w>
assist ant</w>
Con stitut
condit ia</w>
y ard</w>
vent ure</w>
rat ei</w>
journ alist</w>
N Y
C av
un acceptable</w>
retur ns</w>
cit at</w>
Tr ib
Ch urch</w>
trat amentul</w>
ret ired</w>
fe ed</w>
administr atiei</w>
ad ds</w>
may or</w>
l ag
gl ass</w>
Kore an</w>
in aug
get ary</w>
fact ori</w>
co de</w>
.com .
r ub
dist ance</w>
io arele</w>
An ne</w>
parlament ari</w>
oper atiune</w>
B uck
stud ii</w>
separ at</w>
redres are</w>
ofer ind</w>
facil ity</w>
emis iilor</w>
per form</w>
net works</w>
epis ode</w>
ed itor</w>
Tr ust</w>
Moh amed</w>
H ad
sho ot
loc ali</w>
fl ed</w>
c amer
benefic ia</w>
as ka</w>
ul ei</w>
p ir
mo uth</w>
N ad
Mosco va</w>
K ane</w>
opozit ia</w>
mo re
difficult ies</w>
str e</w>
h ole</w>
gaz da</w>
cump ere</w>
H S
st ea</w>
intaln i</w>
he imer</w>
clos ing</w>
interz is</w>
atr ag
Ph oto</w>
tin y</w>
partici pe</w>
nopt ii</w>
W ood</w>
L ank
lu and</w>
incer ce</w>
gu idelines</w>
apos t</w>
activ ist</w>
mun icip
Os borne</w>
traffic king</w>
amint esc</w>
N BC</w>
popul are</w>
las ati</w>
investig ate</w>
est on</w>
bo l</w>
af fairs</w>
Ch ief</w>
pompi eri</w>
kne e</w>
T si
R ug
wed ding</w>
os en</w>
opin iile</w>
int inde</w>
ext end</w>
confirm a</w>
c ai</w>
apart ament</w>
K ent
8 2</w>
z z
wil d</w>
transm ite</w>
trans mis
spec tr
li qu
constitut ional</w>
argument at</w>
ad apost</w>
viol entei</w>
over whel
contribu abil
camp us</w>
L. A.</w>
Goo d
Con tr
Ab dul
pierd eri</w>
or ic</w>
b ing</w>
reci pro
prot ected</w>
inter og
hor se</w>
Agre ement</w>
A k
th row</w>
pract ici</w>
impos ibil</w>
fic t
as ele</w>
wor ry</w>
st ilul</w>
pers ecut
bur den</w>
stabil easca</w>
manag ing</w>
Ad ministr
re dusa</w>
pl af
imed iata</w>
fron tal
emerg ing</w>
detail ed</w>
wel com
s lab</w>
provo aca</w>
operatiun i</w>
stabil irea</w>
princip iul</w>
oo s</w>
imbunatati re</w>
echilib ru</w>
Direct ive</w>
utiliz eaza</w>
technolog ies</w>
sal bat
ast ro
el ements</w>
b anda</w>
trag edy</w>
loy d</w>
ent ului</w>
strength ening</w>
posibil ul</w>
par ad
U N
welcom ed</w>
ri ers</w>
r am</w>
prim ar</w>
par am
doved i</w>
discut am</w>
deput at</w>
K en</w>
inde x</w>
democr atie</w>
compl aints</w>
suspend at</w>
rap e</w>
oppon ents</w>
judec ator</w>
increas es</w>
h its</w>
aspect ele</w>
W o
pul l</w>
list en</w>
amp ton</w>
M A</w>
Jew ish</w>
tot ally</w>
attemp ted</w>
ab road</w>
rez ol
respect area</w>
L ife</w>
we ak</w>
sh ock</w>
leg ile</w>
incal cat</w>
hop efully</w>
as ide</w>
R iver</w>
refugi atilor</w>
ct ic</w>
10 ,000</w>
protect ing</w>
pericul oase</w>
gar anta</w>
ecolog ice</w>
consec intele</w>
altern ativa</w>
partener ul</w>
des ire</w>
str ain</w>
sarb atori</w>
pic ioarele</w>
ex posed</w>
republ ican</w>
rati fic
intre rup
reve al</w>
anc h</w>
Mar co</w>
tr ies</w>
ac opera</w>
rezol va</w>
on er</w>
obisnu ite</w>
dez astru</w>
vor beasca</w>
un ere</w>
tradit ionale</w>
tra um
plan et</w>
nerab dare</w>
n ever
consol ida</w>
adopt ate</w>
ad mit
Hun garian</w>
teror ist</w>
protej area</w>
l o</w>
con firm</w>
W right</w>
Sh ang
vide os</w>
v ant
ib ern
apart ment</w>
Leic ester</w>
K yle</w>
su perio
nec unos
min im</w>
adoles cent</w>
P E</w>
Hung ary</w>
nav a</w>
infr actiuni</w>
el emente</w>
Z h
In form
B ali</w>
provo ca</w>
Par ker</w>
ur ge</w>
str ing</w>
clas h</w>
bloc at</w>
bai eti</w>
administr atie</w>
Pop e</w>
Fr antei</w>
Clar kson</w>
re num
plat esc</w>
gar da</w>
fort e</w>
co unc
buc ur
ar ded</w>
R u
qu es</w>
conserv atori</w>
ch e</w>
consti ent</w>
ra ul</w>
oz one</w>
init iala</w>
ack er</w>
tr a</w>
o on</w>
incendi u</w>
reason able</w>
r um
par erea</w>
hop ed</w>
ap ol
afl ata</w>
surro unding</w>
pop orului</w>
co ol</w>
Glob al</w>
off ensive</w>
de op
b s</w>
acc ession</w>
T ro
L ane</w>
sarac i</w>
p ain
follow s</w>
em por
N ob
Ma x</w>
K il
G a
ste ag
refuz a</w>
prim arul</w>
partide le</w>
imbrac aminte</w>
dul ce</w>
cl oth
10 .
refl ect</w>
per ch
enjo yed</w>
L ive</w>
stabil itate</w>
p et</w>
m eg
la ke</w>
har der</w>
democr atice</w>
car di
P apa</w>
G A</w>
B a
th ur</w>
loc atii</w>
investig atia</w>
i ara</w>
f enom
Shang hai</w>
P ap
Mon et
Mol dov
univers al</w>
typ es</w>
spun eti</w>
ant ib
Ben j
&apos; i</w>
un like</w>
to amna</w>
nov el</w>
g or
ace ut
tal ked</w>
intor c</w>
afl ate</w>
R y
M S
D anny</w>
sec und
r ar</w>
autor itatea</w>
y pt
th a</w>
put erii</w>
consil iu</w>
afect ati</w>
9 2</w>
tre c</w>
som ajului</w>
real itatea</w>
public itate</w>
indr az
arm ele</w>
i asa</w>
Indon esia</w>
fa ult</w>
destro yed</w>
count s</w>
aut orul</w>
ad ica</w>
sc an
ond a</w>
contract s</w>
advert ising</w>
act ers</w>
199 6</w>
r ally</w>
ic ian</w>
extraordin ar</w>
coordin ation</w>
car ds</w>
amen inta</w>
sed iul</w>
ress es</w>
re placed</w>
etich et
contrad ict
anu ale</w>
inter cept
199 4</w>
reven irea</w>
Oliv er</w>
trag ed
po unds</w>
ind ing</w>
hel ic
cont est</w>
sir ian</w>
sanct iuni</w>
mach ine</w>
emb ly</w>
det ail</w>
cheltui eli</w>
D a
Al ban
trans frontal
sufici enta</w>
par ere</w>
impos ed</w>
c ell</w>
corect e</w>
R T</w>
K han</w>
D re
w eren</w>
ush ed</w>
remar ks</w>
i ance</w>
d ure</w>
char acters</w>
In dependent</w>
par c
p av
izbuc nit</w>
ingrijor are</w>
eg alitatea</w>
U DI</w>
Col lins</w>
v ita</w>
s ang
refer it</w>
protest ers</w>
deliver y</w>
ath let
sarac iei</w>
ident ifica</w>
folos ita</w>
asigur are</w>
Stock holm</w>
cuprin se</w>
cl imb
PR New
dr one</w>
dispon ibil</w>
prison ers</w>
n el</w>
encour aging</w>
ch r
Mal col
perch ez
justit iei</w>
direct e</w>
ol ves</w>
dec or
J ose</w>
199 2</w>
C el
proced urile</w>
not ice</w>
intent ia</w>
particip ation</w>
f unded</w>
dre w</w>
ceremon y</w>
Malcol m</w>
L ady</w>
Common wealth</w>
B oko</w>
B ail
vorb ind</w>
to ol</w>
cunos cute</w>
auster ity</w>
acoper ire</w>
auto buz
S ul
8 1</w>
rev eni</w>
is ol
discut e</w>
L ove</w>
obtin ute</w>
extraordin ary</w>
O S</w>
g all
cof fee</w>
B ond</w>
Ac tion</w>
sho ulder</w>
mist ake</w>
en su
del ay</w>
G M</w>
represent ed</w>
in al</w>
Rang ers</w>
o is</w>
is er</w>
cin em
bil ete</w>
ig ur
adres at</w>
wi der</w>
vice presedintele</w>
tre pt
pozit iva</w>
organiz atiile</w>
more over</w>
ins emnat</w>
bel ief</w>
b es
O t
Le on
trans ition</w>
titl u</w>
temper atures</w>
person ally</w>
p el
om a</w>
Blu es</w>
Ap p</w>
rasp an
ib an</w>
cur se</w>
atmos fera</w>
I C</w>
Al z
san se</w>
enorm ous</w>
Ind ustr
Br ad</w>
st an
re mark
re ference</w>
car acter</w>
ar matei</w>
app ing</w>
S ri</w>
out s</w>
2 ,000</w>
re l</w>
dr y</w>
agent iile</w>
pos ibile</w>
n ight
conce put
commit ments</w>
cit iti</w>
bin ec
Gl en
parint ilor</w>
intere se</w>
th eless</w>
obisnu ita</w>
genu ine</w>
cercet area</w>
amb ii</w>
Egip t</w>
Andre ws</w>
tempor ary</w>
olog ist</w>
f os
F a
scr utin
rus ine</w>
riv als</w>
never theless</w>
depl ina</w>
S l
E ag
incuraj a</w>
impress ive</w>
i k</w>
awar eness</w>
amenint area</w>
ro it</w>
jud g
7 0
Mondi al</w>
gr as
bur n</w>
avert isment</w>
as y</w>
ur g</w>
op ing</w>
intelig ente</w>
abat ut</w>
pi eces</w>
lif t</w>
fall s</w>
drum ului</w>
colle ague</w>
autobu z</w>
act ors</w>
organ ism</w>
consum ption</w>
Pol itie</w>
N ationale</w>
Ar tic
un usual</w>
propag anda</w>
Tra de</w>
Mc Car
re nov
particip area</w>
i x</w>
energet ic</w>
H us
st em</w>
re par
iz z
f ought</w>
end on</w>
doz en</w>
sig ning</w>
har m</w>
f ill</w>
c .</w>
V inc
ion ului</w>
ern andez</w>
prom in
F err
det ent
te am
incal ca</w>
i atr
Un iversitatii</w>
Det roit</w>
supraviet u
expl an
en z
acuz atiilor</w>
Pow er</w>
won der</w>
ter y</w>
draw ing</w>
continu am</w>
Alz heimer</w>
structur al</w>
produc er</w>
analy st</w>
S ut
L et
tr ained</w>
t este</w>
neut r
inc h</w>
id ly</w>
ec a</w>
P av
C u
r ar
T eh
198 9</w>
str am
st om
restrict ions</w>
per cent
partener ii</w>
mar f
cl ean
F ab
C leg
fur ther
f ail</w>
Conserv atives</w>
th ough
fond atorul</w>
acc ess
uit am</w>
trad ition</w>
rebel s</w>
prez idential</w>
mar s</w>
direct ed</w>
P u
re mot
il ity</w>
def ensive</w>
cre eze</w>
add ressed</w>
Pol and</w>
B at
u ge</w>
rec k
oras ele</w>
ir o</w>
ai red</w>
pers ist
lim its</w>
il es</w>
fair ly</w>
cercet arile</w>
loc urilor</w>
Pent ag
N ou</w>
Isra elul</w>
us eful</w>
manu fact
imbunat atit</w>
bil ateral</w>
Sou th
x on</w>
surpr ins</w>
scop e</w>
oper atie</w>
mon um
ater ale</w>
art ists</w>
rad i
Rob in</w>
th inks</w>
wit ness</w>
utiliz atorii</w>
twe eted</w>
spor it</w>
Be y
str ansa</w>
imprum ut</w>
afect ata</w>
Sw iss</w>
reput ation</w>
mondi ale</w>
iet ate</w>
ad use</w>
v ess
product ive</w>
estim ates</w>
comerc iala</w>
venit urilor</w>
rid ice</w>
r ii</w>
inc ul
cor respond
caz urile</w>
as um
adres ata</w>
Festiv al</w>
overn ight</w>
instruct ie</w>
imprumut uri</w>
further more</w>
form ata</w>
constr uita</w>
z id</w>
pre sus</w>
li ed</w>
c ati</w>
cerer ile</w>
ar gue</w>
prop use</w>
incap ac
de rer</w>
Sco ala</w>
Fil m</w>
st un
keep er</w>
intaln iri</w>
desp ag
den ly</w>
br ief</w>
Je b</w>
situ ations</w>
pro fil
implic area</w>
alb astru</w>
C ab
.co .uk</w>
sh if
orig in</w>
gan g</w>
consil ier</w>
cond use</w>
zah ar</w>
priv im</w>
paras easca</w>
qu ali
expl ains</w>
di am
cult urale</w>
car efully</w>
be aten</w>
sh ap
recogn ised</w>
iz ing</w>
incer cand</w>
inc idents</w>
ell er</w>
dial og
cl ients</w>
Sou thern</w>
materi als</w>
inv inge</w>
f iti</w>
cond uc</w>
char acter
ast ept</w>
ab led</w>
Carl ton</w>
int ample</w>
h o</w>
c m</w>
A v
rad io
eth nic</w>
ent repre
ministr ii</w>
C air
9 6</w>
9 3</w>
pro asp
i est</w>
custom er</w>
Kent ucky</w>
K at
vanz ari</w>
niciun ul</w>
imp as</w>
d ates</w>
cont empor
amint este</w>
ajung and</w>
Ar thur</w>
tr ain
sud denly</w>
ail ing</w>
L t
Blo om
ne asca</w>
ak i</w>
term eni</w>
s ans
got ten</w>
fo sta</w>
ato reaza</w>
ac commod
W .</w>
P lat
B uc
re usi</w>
doct orii</w>
strict e</w>
met res</w>
P ri
F lo
CO 2</w>
success fully</w>
pescu itului</w>
div ision</w>
cloth es</w>
ci oc
americ anii</w>
Cleg g</w>
mon itor</w>
k is</w>
intar z
dificult ati</w>
Ministr y</w>
Kr ist
Bro ad
A par
ind icat</w>
ac ing</w>
sign al</w>
e k
coleg ilor</w>
br illi
O fici
term enul</w>
supraviet uit</w>
pens ii</w>
pat ra</w>
el ed</w>
9 1</w>
us ions</w>
hospit als</w>
deplas at</w>
d atoreaza</w>
straz ile</w>
regist ered</w>
iz arii</w>
extre ma</w>
at t</w>
Re prezent
Br ady</w>
express ion</w>
dead ly</w>
cur ata</w>
combat ere</w>
appoint ed</w>
terr ible</w>
st up
os ul</w>
ma m</w>
ism ele</w>
ion ers</w>
ic ks</w>
educ atia</w>
concent reze</w>
ar do</w>
T ow
libert atii</w>
felic it</w>
favor ite</w>
1, 5</w>
view ers</w>
organiz a</w>
lib ere</w>
ec ran</w>
co o
baz ata</w>
al er
tr as
s li
iz ati</w>
El vet
vir us</w>
su ver
prec isely</w>
nevo ile</w>
l augh
deciz iile</w>
car i
canc erului</w>
cal atori</w>
Em ma</w>
Asoci atia</w>
A ustin</w>
w a</w>
ofer ite</w>
bus y</w>
pro of</w>
lux ury</w>
equ ally</w>
elabor area</w>
caf ea</w>
Co al
sor ry</w>
lip sit</w>
em it
telefon ie</w>
jurid ica</w>
rasp unda</w>
pract ical</w>
o ana</w>
legisl atie</w>
form ed</w>
confrunt am</w>
ul es</w>
threat ening</w>
support s</w>
sl aba</w>
oportun itatea</w>
op ereaza</w>
gandi m</w>
constr uiasca</w>
anchet atorii</w>
Tai wan</w>
B alt
ver d
suf fer</w>
it iei</w>
bar bat
u d</w>
sufer inta</w>
relig ion</w>
bro thers</w>
referen dum
implement ing</w>
Br and
despag ub
Ha iti</w>
Ge elong</w>
intelig enta</w>
fiz ica</w>
O K</w>
problem ei</w>
lin ks</w>
deb ates</w>
d yn
ader are</w>
N u</w>
ui este</w>
pr int</w>
consum atori</w>
bic icl
adult i</w>
Rober ts</w>
ret t</w>
ord s</w>
exc ited</w>
cru de</w>
cour ts</w>
ch at</w>
E ver
Dis ney</w>
transm is</w>
od ie</w>
handic ap</w>
celebr ate</w>
i P
expans ion</w>
M anu
y l</w>
ut ed</w>
tr uck</w>
rach ete</w>
Co sta</w>
interz ice</w>
fi x</w>
eb all</w>
demonst reaza</w>
am p</w>
ad just
to ols</w>
procur orul</w>
pre caut
ing ul</w>
constat at</w>
com it
w oo
sel ection</w>
gir l
emis iile</w>
de pos
par asi</w>
gres ita</w>
f ile</w>
l acr
gener ate</w>
Jim my</w>
Au thor
writ es</w>
och i</w>
S ah
dubl u</w>
develop ments</w>
Tal iban</w>
IM M</w>
solic it</w>
f uz
ac compan
B oo
A E
fiel der</w>
econom ist</w>
vot are</w>
des pread</w>
F ot
subiect ul</w>
reb el</w>
fer mi
Wom en</w>
New castle</w>
form area</w>
dovez ile</w>
ult er
riv er</w>
l ights</w>
f unn
car act
prosp ect</w>
perman enta</w>
in ra
Scot iei</w>
S ean</w>
Fo ot
sav ing</w>
regul atory</w>
c anta</w>
wi despread</w>
reamint it</w>
lo s</w>
cert at</w>
specul ation</w>
s imb
ra il
out r
clad iri</w>
cand va</w>
pregati re</w>
imb ab
fere astra</w>
consult ant</w>
cere ri</w>
an gry</w>
Un garia</w>
wil d
prov ision</w>
echip amente</w>
stabil este</w>
sfer t</w>
intervent ie</w>
ind ata</w>
consider ation</w>
ag ents</w>
L E
unt ed</w>
on ului</w>
ell o</w>
ain ei</w>
z en</w>
ur area</w>
sport iv</w>
S erg
P AC</w>
enth us
adv anced</w>
F E
ter ap
t icket</w>
ser ii</w>
n unta</w>
milit antii</w>
inc ent
high light</w>
gr ad</w>
dez a</w>
cust ody</w>
az y</w>
A N</w>
5 0,000</w>
wo unded</w>
inde aproape</w>
i esc</w>
drog urilor</w>
contin utul</w>
con tains</w>
su rely</w>
st ro
Ly on</w>
v ei</w>
prim ului</w>
r ia</w>
funct ion</w>
arr ive</w>
G reg
in os</w>
av ent
P IB</w>
3 50</w>
transform e</w>
sov ere
perform ed</w>
intre b</w>
inform atiilor</w>
eng aged</w>
e for
angaj atilor</w>
W oods</w>
oppos ite</w>
doban zilor</w>
pre ved
ileg ala</w>
glum a</w>
c ibern
represent ative</w>
ma x
ga thered</w>
com edy</w>
T ech
v and</w>
lucr ari</w>
d ans
ut s</w>
sw im
priv acy</w>
pat ri
mijloc ii</w>
democr atiei</w>
contr ar</w>
b iz
acord area</w>
T ot
pretin de</w>
gu ests</w>
res olve</w>
refer ring</w>
port of
efor turilor</w>
bunast area</w>
banc ar</w>
adm ir
M emor
ol ds</w>
lo ad</w>
bed room</w>
bal anced</w>
K u
J ar
ma p</w>
coal itie</w>
ch osen</w>
amb asad
Fr on
wat ers</w>
st ele</w>
st ake</w>
p is
gen etic</w>
er am</w>
b acter
C it
mis iune</w>
scen es</w>
incredi ble</w>
er s
cat al
R ick</w>
Doug las</w>
a uc
Tur ner</w>
Raz bo
eng er</w>
D ubl
Q atar</w>
inst antei</w>
accident ul</w>
Air lines</w>
un itatea</w>
realiz area</w>
ip t
gar den</w>
congrat ulate</w>
adoles cent
trans mit
quest ioned</w>
T ed</w>
ra g</w>
g ained</w>
ato resc</w>
S ub
ci ocol
cerer ii</w>
F i
teen ager</w>
mom ent
depl oy
coleg i</w>
ac o</w>
oph y</w>
o e</w>
famil iilor</w>
at oreasca</w>
asoci at</w>
act iona</w>
ses iune</w>
produc ator</w>
n az
m ute</w>
ic ale</w>
comun itatile</w>
casator ie</w>
sh ops</w>
miss ions</w>
mir ac
cupl u</w>
cetat ean</w>
Copenh aga</w>
re prezenta</w>
low est</w>
in demn
ic il
cur at
b low</w>
au st
aliz ed</w>
act ul</w>
Z imbab
P lan
pregn ant</w>
percent age</w>
nor ma</w>
cat astro
G DP</w>
Copenh agen</w>
um b</w>
scap at</w>
er o</w>
dure ro
collap se</w>
a ked</w>
Su k
trib ute</w>
t ex
ra w
prop erties</w>
ibil itate</w>
hum ans</w>
d ance</w>
Re id</w>
modern a</w>
ing u
discuss ing</w>
d erii</w>
renew able</w>
real ise</w>
iv eness</w>
inn oc
d ating</w>
alt fel</w>
t end</w>
p ara</w>
k itchen</w>
answ ers</w>
al iat</w>
Li b</w>
sy mp
slab e</w>
or l
foc ul</w>
ex citing</w>
vari ety</w>
stud entilor</w>
sav ed</w>
loc ked</w>
form are</w>
ag u
McCar thy</w>
vis iting</w>
v ant</w>
sc oti
oper are</w>
lupt ele</w>
Man agement</w>
sco res</w>
impul s</w>
fruct e</w>
disappoint ed</w>
amenint at</w>
sun g</w>
inver sun
ab ort
O M
1 st</w>
priv it</w>
m on</w>
integr area</w>
educ atiei</w>
cancel arul</w>
St ef
proc ente</w>
di et</w>
bo om</w>
ar ing</w>
R ay</w>
sch e</w>
de tr
constit u
ben ch</w>
Mor ris</w>
sy l
sem i
grup urilor</w>
Presedint ia</w>
K l
videoc lip</w>
r or</w>
investigh eaza</w>
Ol imp
N ot
B ash
14 9</w>
unch iul</w>
sp arg
att itude</w>
ung h
sofer ul</w>
rec es
f aster</w>
en sus</w>
en ia</w>
F ed</w>
Cl evel
s ati
risc uri</w>
particip ants</w>
jur is
inter im
y el
over come</w>
mo dele</w>
j ailed</w>
fiel ds</w>
dep una</w>
air line</w>
Is il</w>
Col in</w>
un ve
sun a</w>
sar ace</w>
realiz ate</w>
inaint at</w>
K a
rel l</w>
inregistr ate</w>
ap ar</w>
Pal mer</w>
vict or
st ations</w>
gas ita</w>
cl er
Dubl in</w>
6 0
utiliz arii</w>
s ongs</w>
mod alitati</w>
gest iune</w>
can ad
birth day</w>
abs enta</w>
ick en</w>
conf is
beg ins</w>
R af
J ake</w>
rac ing</w>
pag ini</w>
b acking</w>
vr ut</w>
tere nul</w>
retel ele</w>
princip iile</w>
intel e
F el
spon s
p ant
barbat ilor</w>
ap area</w>
pled at</w>
anon ym
T in
Jess ica</w>
cover ing</w>
analiz at</w>
a uct
Un iune</w>
the ast</w>
telef onul</w>
inra ut
et er</w>
critic ised</w>
aleg atori</w>
U n</w>
Clevel and</w>
Ch an</w>
wond erful</w>
o urile</w>
rest abil
eas es</w>
ciocol ata</w>
caract erul</w>
lucr am</w>
e ous</w>
ban care</w>
perform ing</w>
domin ant</w>
Indon ezia</w>
Europ eans</w>
sp ori</w>
indic ated</w>
br ut</w>
achiev ing</w>
I s</w>
we igh
str a</w>
g uns</w>
form ul
A dr
ridic ata</w>
de fect
b ond</w>
La ura</w>
test ed</w>
shar p</w>
coleg iu</w>
locu itori</w>
know ing</w>
h itting</w>
el son</w>
H od
Al ber
z iar
mand atul</w>
ins ult
desp erate</w>
declar atiile</w>
cot a</w>
atur ii</w>
ap elul</w>
Congres ul</w>
verd ict</w>
vaz uta</w>
tehnolog ii</w>
ir on</w>
gu ide</w>
c asu
Uk rain
Re present
Ess endon</w>
st uck</w>
inc et</w>
establ ishing</w>
er oare</w>
de struct
av ans
Asoci atiei</w>
t ir</w>
purt and</w>
po und</w>
part ly</w>
en em
cent ura</w>
aw a
atmos phere</w>
ar at
accept e</w>
fug a</w>
al arma</w>
viz ite</w>
strugg led</w>
pregat este</w>
meth od</w>
ade a</w>
Ucr ainei</w>
P ier
1 30</w>
s lip
mort g
meth ods</w>
hot el
ep u
difer itele</w>
turne ului</w>
tech ni
sub mitted</w>
exclus ive</w>
cot idi
class ic</w>
bud getary</w>
R et
Cap it
f ib
T ar
sho uldn</w>
putern ici</w>
investig atii</w>
aer op
W A</w>
P el
H as
wh e
re tinut</w>
ordin ary</w>
inarm ati</w>
democr atii</w>
CC TV</w>
tal ib
po d</w>
i as</w>
ent ering</w>
C at
sub min
retel ei</w>
mult il
exp and</w>
af ford
R ock</w>
Fond ului</w>
Cor p
taxpay ers</w>
structur ale</w>
regim ul</w>
ad uc</w>
Mc K
r ant</w>
propriet atile</w>
ac re</w>
L amb
199 3</w>
tri um
roy al</w>
pe is
econom iile</w>
denum it</w>
curen t</w>
comp ete</w>
cel orl
act ioneaza</w>
Mass ach
Bl atter</w>
Bern ard</w>
depart amentul</w>
ant ic</w>
St and
Moldov a</w>
Artic le</w>
v ici
ofer im</w>
n ights</w>
curs uri</w>
combin ation</w>
anim alele</w>
Mus ic</w>
M od
vehic ul</w>
t or</w>
so c</w>
sh ocked</w>
met oda</w>
mas urilor</w>
lin iile</w>
ific ati</w>
be bel
av an
and af
W ith</w>
fact s</w>
Dar ren</w>
D jo
uset ts</w>
institut iilor</w>
fr anch
dial og</w>
cuprin de</w>
Massach usetts</w>
Bo eh
put eri</w>
Convent ion</w>
sc adea</w>
r af
necess arily</w>
acord ata</w>
S of
result ed</w>
ist ica</w>
caut at</w>
ar anj
antib iot
K ent</w>
Ch ancellor</w>
st op
so unds</w>
rast urn
es enta</w>
ear n</w>
cooper arii</w>
al p
proced uri</w>
candid atii</w>
star nit</w>
ibil itatea</w>
democr atica</w>
cl ick</w>
L ake</w>
Iord ania</w>
Bail ey</w>
studi ului</w>
fr auda</w>
el vet
Tor ies</w>
D NA</w>
merg eti</w>
integr ated</w>
her o</w>
d an
T ime</w>
tr il
sc ul
Reg ele</w>
Or ig
Mus eum</w>
M e</w>
L akers</w>
H P</w>
sig uri</w>
funct ion
emb arr
abs ence</w>
sec ol</w>
pro hib
prelu area</w>
elim ine</w>
bill s</w>
Dut ch</w>
viol ente</w>
ol en</w>
med ii</w>
Venezu ela</w>
O S
B ab
seas ons</w>
prefer a</w>
ief s</w>
spot ted</w>
ic ing</w>
Cr ist
z bo
frec vent</w>
ex pos
denum ita</w>
def ending</w>
chelt uit</w>
reform e</w>
institut ion</w>
distrug erea</w>
dezbat erii</w>
challeng ing</w>
D iv
ros ii</w>
reg ionala</w>
nam ely</w>
lim itat</w>
ind rep
hol id
aggress ive</w>
suggest ing</w>
sh oot</w>
res ort</w>
ph enom
is her</w>
inloc uit</w>
am pren
sof t</w>
n an</w>
ex it</w>
destin ate</w>
propun erii</w>
istor ice</w>
imigr antii</w>
S wit
Ob serv
New s
surs ele</w>
request s</w>
Fif a</w>
un ior</w>
ne obisnuit</w>
inj ungh
domen iile</w>
democr ati</w>
commun ications</w>
bir ou</w>
po ca</w>
new ly</w>
consec inte</w>
as i
on ed</w>
mec iului</w>
distribut ion</w>
aer on
trec erea</w>
teh nica</w>
statist ics</w>
r oughly</w>
al ise</w>
vice presedinte</w>
qu iet</w>
mand ru</w>
exploz ie</w>
cr ize</w>
bomb ing</w>
W i
O h</w>
Gen eva</w>
Ah med</w>
salar iile</w>
crit icii</w>
acknowled ged</w>
Vol k
z o</w>
pur ta</w>
inv ited</w>
dimens iuni</w>
d ur</w>
comis arul</w>
arh itect
R iv
G ame</w>
1 1.
sans ele</w>
salv area</w>
e iul</w>
Pr inc
P ic
super market</w>
preven irea</w>
premi erul</w>
ib liot
g ust</w>
ed itia</w>
degre es</w>
Benj amin</w>
man ded</w>
R el
plat ite</w>
limit ata</w>
expect s</w>
est a</w>
ess ent
Maced onia</w>
t ied</w>
fur ie</w>
fi ic
en ie</w>
appl ications</w>
Res er
o be
drum uri</w>
competit ie</w>
A vi
uri ase</w>
mecan ism</w>
jud ges</w>
exter ior</w>
emis ii</w>
witn esses</w>
tre es</w>
respons abila</w>
mis iunea</w>
eur ozone</w>
estim ate</w>
condit iilor</w>
civil ians</w>
bo t</w>
Ra iders</w>
Lank a</w>
sar cin
resc u
raspuns uri</w>
prev az
obiect ivelor</w>
f arm</w>
encour aged</w>
employ ee</w>
desig ner</w>
col eg</w>
Pol onia</w>
Mc L
u itat</w>
str ad
h ai
def ens
comp ati
st ia</w>
V an
Aca dem
rel atives</w>
par lament</w>
ok ie</w>
Djo kovic</w>
p ack</w>
intre aba</w>
demis ionat</w>
Ira k
Ham ilton</w>
Author ity</w>
num irea</w>
compon enta</w>
an ca</w>
S now
Rug by</w>
t ight</w>
red act
pericul oasa</w>
ob ser
m ie</w>
compet enta</w>
car bune</w>
as eman
Dub ai</w>
w ages</w>
pr ize</w>
greut ate</w>
et ei</w>
cost ume</w>
cap ete</w>
aliment ele</w>
J r</w>
sk a</w>
ic on</w>
fin ed</w>
press ed</w>
parlament are</w>
efect ul</w>
dem anding</w>
broad cast</w>
any where</w>
purch ase</w>
op reasca</w>
li br
in ate</w>
ens on</w>
diagnos ed</w>
br ight</w>
G ro
Ar ctic</w>
st ab
spir itul</w>
on or
mam ei</w>
corespun zatoare</w>
cari erei</w>
aj ust
Gu ant
vech ea</w>
pr u</w>
pl ini</w>
dis missed</w>
c ock
bai etii</w>
3 ,000</w>
dep une</w>
capt urat</w>
Sci ence</w>
O L
Cor por
int it
dure rea</w>
S ab
s an</w>
histor ical</w>
aud it</w>
as er</w>
Zimbab we</w>
N .</w>
C A</w>
9 7</w>
i ers</w>
efect e</w>
trup ele</w>
s ick</w>
restaur ants</w>
pe ak</w>
musul mani</w>
minor ities</w>
apel uri</w>
anunt a</w>
U p
M T</w>
ult im</w>
k ham</w>
intre g</w>
g enta</w>
ev ite</w>
c ord</w>
at rag</w>
Afgh an</w>
suppl ies</w>
sp an
rus esti</w>
n ab
S un
Boeh ner</w>
9 4</w>
se ized</w>
oper ational</w>
capac itate</w>
ter ing</w>
minun ata</w>
baz ate</w>
anum itor</w>
aliz arii</w>
Rach el</w>
see kers</w>
rez ident
imigr antilor</w>
e en</w>
Nor th
sustin atori</w>
suspend area</w>
ret ele</w>
reg ale</w>
operatiun ea</w>
om ag
n ave</w>
e igh
d an</w>
ascult a</w>
vre o</w>
reprezent antii</w>
cer intele</w>
bas k
H U</w>
D od
par curs</w>
ind ign
incor por
eng age</w>
G at
C o</w>
C S</w>
nec k</w>
mar ci</w>
exc ept</w>
C art
199 1</w>
s ad</w>
h all</w>
be er</w>
ax y</w>
teh nice</w>
resp ir
prim ei</w>
pasag erii</w>
neighbour s</w>
frum oase</w>
dem ol
anal istii</w>
D ez
experi ences</w>
bo ost
Bal k
loc ations</w>
law makers</w>
hon our</w>
el der
Squ are</w>
uc rain
relation ships</w>
op une</w>
dr af
comun itare</w>
patr ati</w>
Mar ina</w>
sim ta</w>
on oare</w>
inn ings</w>
eng ine</w>
rit m</w>
mot oc
f ro
ur ch
sir ieni</w>
invest itori</w>
del ighted</w>
bu re
F eb
Al liance</w>
prosecut or</w>
is uri</w>
emp ty</w>
sym pt
modern e</w>
mix ed</w>
amo unts</w>
M itch</w>
Hol mes</w>
Ad un
ir ani
ecolog ica</w>
comb ating</w>
appro xim
urm ator</w>
st olen</w>
ill ness</w>
gr i</w>
fin ds</w>
dam aged</w>
clad irea</w>
20 ,000</w>
intent ion</w>
h ad
complic ated</w>
b all
ap are</w>
anc ient</w>
War ren</w>
W ill
T op</w>
L ow
t extul</w>
in regist
har dly</w>
vo inta</w>
typ ically</w>
product iei</w>
ac um
F ood</w>
A s</w>
rol es</w>
n atiune</w>
girl friend</w>
camer as</w>
at ured</w>
W ill</w>
Sen atului</w>
Al ab
provoc area</w>
num i</w>
arest area</w>
academ ic</w>
abs orb
M eg
repe at</w>
incant ati</w>
hund red</w>
ex pozitie</w>
V ice</w>
AC P</w>
piet elor</w>
f ast
em ple</w>
v anda</w>
instrum entele</w>
extin dere</w>
ell i</w>
contribut ia</w>
b ie</w>
L im
w en</w>
ma gh
l ap
cl o
M H
C IA</w>
Air port</w>
A wards</w>
natur ally</w>
mut ual</w>
in alte</w>
fish eries</w>
cop les
gas irea</w>
Th or
A R</w>
sex u
offic es</w>
club uri</w>
ce des</w>
associ ation</w>
m or</w>
gar d
ext ension</w>
disci plin
con tained</w>
b alls</w>
tax elor</w>
Mich igan</w>
K i
Dav ies</w>
teror ism</w>
proc ese</w>
pret ului</w>
pollut ion</w>
mascul in</w>
g ains</w>
astept arile</w>
Rog ers</w>
R aj
thro wn</w>
propr ii</w>
promp ted</w>
loc atie</w>
fr uit</w>
coleg ul</w>
un ions</w>
particip ate</w>
lect ura</w>
ed r
auster itate</w>
af raid</w>
St i
un clear</w>
sos irea</w>
pre vede</w>
min er
investig ations</w>
extremis t</w>
d ati</w>
calend ar</w>
am ica</w>
sigur antei</w>
fig ura</w>
ex prim</w>
electric itate</w>
canc erul</w>
Mid d
ph ase</w>
educ ational</w>
R ule</w>
F or</w>
Amer ic
repe ated</w>
mov ies</w>
cut rem
cov ers</w>
conc eput</w>
H ann
p ion
er are</w>
Stan ley</w>
politici eni</w>
n t</w>
campaign s</w>
tr ust
scop uri</w>
mo ara</w>
ma ster
inspir at</w>
gr ant</w>
el le</w>
astept e</w>
H unt</w>
8 0
sol ve</w>
politici enii</w>
per pet
if er</w>
exc ess
Min nes
Mail Online</w>
symp ath
smo ke</w>
regim ului</w>
independ ente</w>
che ap</w>
Gov .</w>
d y
chir urg
beaut y</w>
ant elor</w>
T our</w>
S T</w>
mand atului</w>
corupt ie</w>
cor p</w>
Br istol</w>
viz iunea</w>
telec om
six th</w>
r as</w>
inde plini</w>
un its</w>
step ped</w>
s oare</w>
r op
numer o
let ters</w>
indrept at</w>
forc ing</w>
fi res</w>
bre aks</w>
aug h</w>
win ners</w>
t aste</w>
nopt i</w>
intal neasca</w>
embarr ass
div or
curs ului</w>
un ic
tranzit ie</w>
s ic</w>
offici ally</w>
obstac ole</w>
manag ers</w>
frag ment
equ ivalent</w>
epis o
el ita</w>
ul ous</w>
saptam an
franc eze</w>
rev el
ill ustr
conserv atorilor</w>
bo ok
as ury</w>
Turn bull</w>
prom ises</w>
is sa</w>
cur aj
organiz area</w>
fix ed</w>
sett lement</w>
r amb
mod erate</w>
epis cop
bai atul</w>
Soci ety</w>
S ony</w>
Feder ala</w>
smo king</w>
reprezent antul</w>
qu ant
migr ant</w>
dezvol te</w>
Ro b</w>
Prof essor</w>
O ld</w>
sustin and</w>
proiect ele</w>
produc ing</w>
part ii</w>
moun tain</w>
inch ida</w>
entit led</w>
Fr i
princip iu</w>
industr iale</w>
C ercet
A gr
scr utin</w>
ren a</w>
cr ashed</w>
T o</w>
G P</w>
ut ile</w>
law suit</w>
bure auc
astr o</w>
C la
Aut or
we al
some body</w>
investit iilor</w>
hand le</w>
abandon ed</w>
Sus an</w>
Mer cedes</w>
ram an
potriv ita</w>
out standing</w>
oper ator</w>
oblig atia</w>
m ese</w>
chec ks</w>
valu able</w>
universit ies</w>
promot ion</w>
gazd ui</w>
Minnes ota</w>
Isra elului</w>
Alab ama</w>
con tain</w>
beg un</w>
sol dat</w>
s event
norm ally</w>
j i</w>
highl ighted</w>
dep ist
afl u</w>
Mad ison</w>
D oc
sustin erea</w>
lif ted</w>
juris dict
influ ent
h il
depart amentului</w>
deop arte</w>
coresp ond
ass y</w>
Wal sh</w>
z amb
un em</w>
per su
chim ice</w>
at itudine</w>
ard less</w>
al ature</w>
adm ite</w>
sem ne
p o</w>
in di
g ath
front iera</w>
d ale</w>
cons ensus</w>
b ath
Eg ypt
suspect s</w>
refugi atii</w>
person nel</w>
not iced</w>
mere ly</w>
fo und
er son</w>
dure re</w>
cent res</w>
atac ului</w>
T V
O ce
trans l
rec re
intrebar ile</w>
contribut ie</w>
Belg ium</w>
zer land</w>
sh irt</w>
sal t</w>
ran ite</w>
oblig atiuni</w>
for um</w>
dis charge</w>
ak a</w>
Cath erine</w>
reg ardless</w>
rec all</w>
lat ter</w>
industr ies</w>
fl ac
B iser
stabil itatea</w>
spor irea</w>
Swit zerland</w>
S ports</w>
v ing</w>
od ing</w>
lic enta</w>
ar de</w>
sarbat o
pol i</w>
occident ale</w>
graph ic</w>
voc ea</w>
on na</w>
mo dest</w>
bar ely</w>
b ail</w>
B our
surv ive</w>
strateg iei</w>
remarc abil</w>
depoz it</w>
bom be</w>
19 70</w>
sin ucig
mas iv</w>
leg s</w>
gand iti</w>
civ ila</w>
at aca</w>
Thom son</w>
Extern e</w>
evre u</w>
employ ers</w>
ech ival
D ou
Bo ard</w>
A ar
viz a</w>
fur at</w>
exerc ita</w>
caf en
Stad ionul</w>
Servic iul</w>
vot eze</w>
stad ium</w>
res olved</w>
ph il
let on</w>
ign ore</w>
fi ref
deranj at</w>
Sh ak
recunoast erea</w>
ig ar
fi ului</w>
bro ader</w>
baut uri</w>
acc ent</w>
Pa ul
Ham as</w>
t ale</w>
t ;</w>
lucr atori</w>
elder ly</w>
det ention</w>
citiz en</w>
S anta</w>
C lip
p ink</w>
mic ul</w>
L ast</w>
Elvet ia</w>
Alex and
partener i
obiect e</w>
id ance</w>
cap abil</w>
ban ilor</w>
b o</w>
ac ul</w>
R ow
t ang
sc ada</w>
head quarters</w>
acoper it</w>
televiz iunea</w>
resp ected</w>
inv olve</w>
const antly</w>
asoci ate</w>
Victor ian</w>
exist ence</w>
asigur at</w>
C O</w>
feric ita</w>
dis eases</w>
ch ose</w>
act ionat</w>
War s</w>
H av
Civ il</w>
Ch ile</w>
A E</w>
form ula</w>
fol k</w>
distr use</w>
St or
C er
B air
teren urilor</w>
i als</w>
controvers y</w>
Pal ace</w>
Anton io</w>
pre da</w>
plan eta</w>
hai deti</w>
consider abil</w>
van ia</w>
strateg ii</w>
responsabil i</w>
provinc ia</w>
p amantul</w>
oric and</w>
ocup at</w>
mis carea</w>
constr uirea</w>
bas eball</w>
Ukrain ian</w>
w arming</w>
uni form</w>
spon sor
ow s</w>
leng th</w>
incep erea</w>
Mar i
M s.</w>
suppl ied</w>
summit ul</w>
innov ative</w>
exprim are</w>
bog ate</w>
Ser vici
Reser ve</w>
N elson</w>
Ke ith</w>
Jef f</w>
Centr ului</w>
Cal ais</w>
Bloom berg</w>
slow ly</w>
real ised</w>
prevent ion</w>
in scrie</w>
Con ference</w>
su pre
result ing</w>
nor me</w>
imigr atia</w>
contr ac
c ata</w>
b loc</w>
Om bud
F em
C ot
perfect a</w>
modific are</w>
mechan isms</w>
fiz ic</w>
def ender</w>
react ia</w>
excl us</w>
Volk sw
St one</w>
B rent</w>
t ia</w>
sympt oms</w>
rezerv ele</w>
propriet atea</w>
ob tained</w>
fiz ice</w>
comun icat</w>
buc ur</w>
st aying</w>
improv ements</w>
guvern atorul</w>
construct ive</w>
ass ador</w>
aerop ort</w>
S .
un known</w>
mo thers</w>
imbr atis
fe atured</w>
dead line</w>
Con fer
rein no
olog ic</w>
ministr y</w>
kic ked</w>
fo rest</w>
earth quake</w>
dragost ea</w>
consider able</w>
aler ta</w>
v on
negoti ating</w>
is an</w>
compl aint</w>
though ts</w>
scul pt
sarac ie</w>
l or
Cath olic</w>
w inds</w>
pr as</w>
p a</w>
ne pot
d ressed</w>
cam ion</w>
bun uri</w>
b adly</w>
tot alitate</w>
ro ots</w>
pres ie</w>
oper ators</w>
lider ilor</w>
ig ning</w>
bre ast</w>
view ing</w>
rec alled</w>
par ag
of i</w>
im ea</w>
i ety</w>
ha os</w>
g y</w>
em er
L T</w>
Joc urilor</w>
partener i</w>
l unch</w>
ir d</w>
c al</w>
Ro dr
Ok la
K az
star uri</w>
istor ica</w>
increz ator</w>
b alul</w>
av al
Volksw agen</w>
Gr an
mod er
ma ster</w>
m ex
C astro</w>
utiliz atori</w>
sof er</w>
resp inge</w>
produc atori</w>
manufact uring</w>
ict ed</w>
essent ially</w>
conf uz
S IS</w>
ME s</w>
H it
pl en
leg aturile</w>
Harv ard</w>
Brook lyn</w>
utiliz and</w>
ic als</w>
concent ra</w>
Rom ney</w>
10 0,000</w>
tot odata</w>
ti par
t .</w>
raz bun
f on
err or</w>
am y</w>
Pol icy</w>
Bor is</w>
tr ains</w>
rit mul</w>
pre stig
dep asi</w>
av ioane</w>
ass ist</w>
Portug al</w>
Bul l
ma il
us oare</w>
init iale</w>
hot elul</w>
dec ese</w>
b one</w>
Sov iet</w>
Part nership</w>
tain ing</w>
ra ului</w>
co very</w>
caut e</w>
Pre m
vers iunea</w>
urm eze</w>
reg ister</w>
negoci ere</w>
funct iona</w>
ext ensive</w>
electron ice</w>
R ap
G ames</w>
trecut ul</w>
mor m
highl ights</w>
exper iment</w>
except ional</w>
comentar iu</w>
collect ive</w>
z iar</w>
surv ived</w>
met r
comun itati</w>
attemp ting</w>
Tur c
Mar shall</w>
B ot
B ill
exp end
bun urile</w>
Her ald</w>
F ior
p asi</w>
off ences</w>
document ary</w>
defin ed</w>
con sum</w>
sp al
sof erii</w>
T rent</w>
Okla hom
Minist erul</w>
0 1</w>
t ennis</w>
sh ed</w>
interim ar</w>
interdict ie</w>
deser t</w>
appar ent</w>
ag ers</w>
Mar sh</w>
profes ionale</w>
li ked</w>
expect ing</w>
dezvolt ate</w>
al ities</w>
K ansas</w>
em ails</w>
P P</w>
HS BC</w>
shar eholders</w>
reli able</w>
d ign
arm ate</w>
appl ause</w>
altern ativ</w>
S MEs</w>
Kur dish</w>
repl ied</w>
initi ativ
em bl
ed ings</w>
cour age</w>
accident ului</w>
test ele</w>
tab led</w>
remark able</w>
raspand it</w>
inchis oarea</w>
dro ve</w>
bu yers</w>
awar ded</w>
vand ute</w>
s ab
om or
occas ion</w>
gre c</w>
concl usions</w>
B E
urg eon</w>
musul man
d ans</w>
chin eza</w>
Sam sung</w>
ul s
represent ing</w>
remot e</w>
real istic</w>
re ta</w>
provoc arile</w>
con cu
asc unde</w>
F MI</w>
tem e</w>
iz eci</w>
ez ul</w>
de get
conflict ul</w>
abil itati</w>
Vat ican</w>
utiliz ata</w>
s ut
recunos c</w>
imbunatat easca</w>
du reaza</w>
de my</w>
aliment elor</w>
ade quate</w>
B ishop</w>
par ent</w>
olog ul</w>
gas iti</w>
b ail
Net work</w>
Luc as</w>
Col or
ta g</w>
ict ion</w>
grat eful</w>
fo ods</w>
Intern ationala</w>
E ar
up set</w>
tur isti</w>
televiz or</w>
rap idly</w>
interz ic
cal atorii</w>
S K</w>
sat el
id ul</w>
favor it</w>
ded icated</w>
anticip ate</w>
angaj eze</w>
ag it
Nic ola</w>
N as
Barb ara</w>
Aca demy</w>
util a</w>
un ate</w>
stre am</w>
prim arily</w>
pre fer</w>
j an</w>
incet at</w>
i os
h az
funct ioneze</w>
dispozit ive</w>
0 9</w>
unc ed</w>
reve als</w>
lucr urilor</w>
dimin u
crest eri</w>
an e
st ayed</w>
pac ii</w>
ez ii</w>
export s</w>
camp anii</w>
anul at</w>
Oklahom a</w>
198 0s</w>
un il
m erc
m all</w>
inv olves</w>
es el</w>
H ud
Fe derer</w>
vol at
supravegh erea</w>
mas inile</w>
iv ului</w>
g ar</w>
del l</w>
cre ativ
bureauc r
acces ibile</w>
El ectr
Aar on</w>
1 10</w>
par al
it o</w>
inv itat</w>
infl am
g ate</w>
pen ala</w>
il st</w>
fur ia</w>
buz un
Direct or</w>
t ului</w>
exper ient
de tained</w>
audi o</w>
al itatile</w>
ab e</w>
secret e</w>
lan dei</w>
every where</w>
c ited</w>
Pl aying</w>
t ens</w>
sp anz
prezent i</w>
incl use</w>
dar am
col or
approxim ately</w>
Oreg on</w>
str an
rebel ii</w>
photograph s</w>
Tsi pras</w>
T a
10 ,
spar ked</w>
nevo iti</w>
fot balul</w>
bas ically</w>
D S</w>
AD N</w>
promin ent</w>
femin in</w>
const anta</w>
categ ory</w>
L L
D E
struct ures</w>
ju sti
intele aga</w>
fit ness</w>
Nor veg
M es
B eng
v este</w>
res ident</w>
raport or</w>
govern ing</w>
er ad
R S
viol ations</w>
r ich
perfect ly</w>
inter val</w>
ief tine</w>
detent ie</w>
cross ing</w>
ag on
F ree</w>
A my</w>
s k</w>
incredi bly</w>
ev itat</w>
domn ului</w>
cuno aste</w>
consult ation</w>
accord ance</w>
ac elor</w>
absol ute</w>
public area</w>
peace ful</w>
mus eum</w>
mobil ity</w>
fac ult
D uch
ver sus</w>
on ing</w>
in n</w>
baz ele</w>
3 D</w>
swe et</w>
reglement ari</w>
recomm ended</w>
plo aie</w>
memor ial</w>
guvern ator</w>
en berg</w>
sim ul
fur tun
en ly</w>
confrunt e</w>
conf ident
comm it</w>
Afr icii</w>
phenom en
amenint ari</w>
Mal ley</w>
Br ien</w>
18 0</w>
unde va</w>
scris oarea</w>
pre mat
inde lung
el and</w>
conclu de</w>
pi arda</w>
inov atoare</w>
fl ori</w>
em ail
av ansat</w>
Russ ell</w>
Prot ection</w>
L i</w>
Er do
re mind</w>
ic ala</w>
guvern are</w>
fron ti
ev ic</w>
cercet ari</w>
anticip at</w>
B aker</w>
un preced
intelig ent</w>
M arte</w>
Islam ist</w>
weap on</w>
vec inii</w>
sus cept
stabil ita</w>
salar iilor</w>
s ide
du o</w>
cro az
ac compl
Bar ry</w>
scol ii</w>
prov in</w>
im et
can alul</w>
as ser
acop eri</w>
P l</w>
sal arii</w>
leg end
cinem at
Turc iei</w>
K rem
ta h</w>
plan ului</w>
g ata</w>
dis pos
comunic are</w>
bre ach</w>
prior itatile</w>
ay ers</w>
E mil
B .</w>
wh ilst</w>
spectac olului</w>
pet ition</w>
patr imon
opin ii</w>
lo i
less ons</w>
judic ial</w>
ingrijor atoare</w>
del ays</w>
ale aga</w>
Tran sport</w>
Champ ionship</w>
titl uri</w>
gas im</w>
atal ui</w>
af fil
H az
luc k</w>
ing a</w>
ger mana</w>
bar s</w>
R C</w>
Lt d</w>
En viron
Br idge</w>
t atalui</w>
ra p</w>
intre rupt</w>
in ject
impart asit</w>
detal iu</w>
al be</w>
stiint ifice</w>
ord ului</w>
iz es</w>
es u
deput atii</w>
bab ies</w>
st an</w>
risc urile</w>
her itage</w>
ga ura</w>
dev en
Educ ation</w>
treat y</w>
prezident iale</w>
premi era</w>
or ous</w>
exp us</w>
en ous</w>
contract ul</w>
bo ats</w>
L op
Fior ina</w>
C elt
Br umb
unpreced ented</w>
sup use</w>
st ages</w>
mar ch
gram ada</w>
g ura</w>
cumpar are</w>
acoper irea</w>
Vinc ent</w>
tot deauna</w>
merg em</w>
intreg i</w>
incep em</w>
go al
deb utul</w>
Alex is</w>
zbor uri</w>
sistem elor</w>
plan es</w>
m ere</w>
jum p</w>
ro ut
pen alties</w>
pasag erilor</w>
om ing</w>
lans ata</w>
had n</w>
cer and</w>
utiliz atorilor</w>
st ance</w>
proc ent</w>
prin si</w>
moment um</w>
ic ia</w>
fr unt
fotograf ia</w>
contribut ions</w>
car eful</w>
atr oc
ten is</w>
pas ap
op ens</w>
impozit are</w>
cir cu
Servici ului</w>
purt atoare</w>
public atia</w>
post s</w>
ov e
h at</w>
et elor</w>
scand al
ie si</w>
fer til
count y</w>
c resc</w>
banc ii</w>
M os</w>
s pre
ch ocol
be ating</w>
C red
Belg ian</w>
yl an</w>
ver ifica</w>
th u
telefon ice</w>
plan ificat</w>
min i</w>
film ele</w>
centr ului</w>
auth ors</w>
app s</w>
S ept</w>
pr ise</w>
mist akes</w>
demonstr ated</w>
Man ly</w>
Eur o</w>
propriet ari</w>
inund atii</w>
in ilor</w>
determin ation</w>
child hood</w>
St ud
Color ado</w>
rom an</w>
prezent are</w>
up coming</w>
serv i</w>
re tin
prezent ata</w>
presup us
pen ale</w>
p ung
gener ations</w>
execut ives</w>
cain ele</w>
arriv al</w>
adm it</w>
Rezer va</w>
frequ ently</w>
ep p</w>
digit ale</w>
O n</w>
vol ume</w>
prot este</w>
legitim ate</w>
M ack
uc ks</w>
th ly</w>
bag s</w>
Wall ab
Orig in</w>
telefo anele</w>
s uta</w>
mijlo ace</w>
lim itate</w>
in ot</w>
atiun ile</w>
F i</w>
Ber ry</w>
ris ca</w>
pursu e</w>
parlament ului</w>
ief tin</w>
auto strada</w>
0 8</w>
ran ked</w>
oblig ations</w>
conserv atoare</w>
apart amente</w>
st ressed</w>
predict ed</w>
fre y</w>
fiecar ui</w>
appoint ment</w>
ve deti</w>
sustin ator</w>
promov are</w>
oar ei</w>
low s</w>
funer al</w>
cumpar aturi</w>
compl iance</w>
castig atorul</w>
cam erele</w>
ban k
Cas ei</w>
C B
2 7
ident itatea</w>
i deze</w>
Polit iei</w>
ser ioase</w>
s as
exclus iv</w>
ere z</w>
emphas ise</w>
T at
studi ile</w>
relev ante</w>
rel u
prag ul</w>
k inson</w>
intr are</w>
ge ograf
cut it</w>
G or
Cor n
ten ham</w>
reput atia</w>
pol on
n urs
l act
com ise</w>
col our</w>
ben z
st ap
multum iti</w>
equ ity</w>
domin ated</w>
dom icil
diox id</w>
legisl ativ</w>
inv it
gen ul</w>
district ul</w>
att acking</w>
P od
un fair</w>
ingrijor area</w>
ch annel</w>
apar itie</w>
Nob el</w>
Mer r
l av
do s</w>
ass ess</w>
tin ere
some what</w>
s cl
not or
cho ices</w>
banc ilor</w>
Gre ens</w>
Cam erei</w>
spe aks</w>
respons ibilities</w>
magaz inele</w>
fur t</w>
direct orii</w>
contin ut</w>
cal om
acc us
Th ur
Str as
ro y</w>
re covered</w>
perchez it
og l
electr ica</w>
conving erea</w>
Tre asury</w>
Tr u
Ath ens</w>
um es</w>
respons abile</w>
priv esc</w>
polit ically</w>
lab urist</w>
indeplin easca</w>
art isti</w>
W is
Strateg y</w>
P as
P S
M ob
yel low</w>
sat ell
plac ere</w>
par king</w>
osp ect
hart ie</w>
de au</w>
champ ionship</w>
N ar
In t
tens ions</w>
sec olului</w>
sc rap
re fere
mid fielder</w>
excess ive</w>
de pression</w>
cou ples</w>
construct ii</w>
S port</w>
R ou
f ing
ev ol
em atica</w>
d u</w>
calator ia</w>
Tes co</w>
M y</w>
B et
viz at</w>
subsid iar
poss ession</w>
fo undation</w>
f an
el ite</w>
democr atia</w>
de alt</w>
IM F</w>
Foot ball</w>
w alls</w>
vis its</w>
reg iunii</w>
r ice</w>
alt ora</w>
z o
tou ch
t ub
retr aga</w>
liv r
ju de
Em ir
vulner abile</w>
f ului</w>
e odata</w>
cat eodata</w>
bicicl eta</w>
as ion</w>
W ater
B ak
uim itor</w>
sf at
quali fied</w>
categ oria</w>
Sal v
Gul f</w>
strateg ies</w>
purt atoarea</w>
pac ked</w>
ot t</w>
the ory</w>
inregistr area</w>
hot arat</w>
can di
appear ing</w>
w aves</w>
tur ism</w>
port ile</w>
inc ert
fort ati</w>
anno unce</w>
H ayne</w>
Co un
opolit an</w>
ment ally</w>
kn ife</w>
io z
eur os</w>
discut iilor</w>
t ure</w>
super vis
sol o</w>
reform ele</w>
lif est
lan ded</w>
guvern anta</w>
brilli ant</w>
alt cineva</w>
R oc
E .</w>
C ec
proce edings</w>
multum ita</w>
gh et
Glen n</w>
Dow ning</w>
Common s</w>
request ed</w>
dist urb
d ying</w>
I TV</w>
scr ib
oc key</w>
imigr atie</w>
ac ed</w>
Indi ana</w>
Bo eing</w>
ut ului</w>
infrang erea</w>
bir ds</w>
St ev
incuraj eaza</w>
i ard</w>
funn y</w>
ex h
combust ibil
co d</w>
adm its</w>
S aint</w>
G ill
or iun
mone dei</w>
gre en
gran itei</w>
decl in</w>
co borat</w>
activ ely</w>
Bry ant</w>
10 0
surpr ising</w>
sanat oasa</w>
ph arm
l ira</w>
entrepre neur
aw ards</w>
Muz eul</w>
J an</w>
stor age</w>
past reze</w>
franc ezi</w>
dur abile</w>
cur at</w>
apl auze</w>
Po int</w>
L aw</w>
unn el</w>
tre nul</w>
pun ishment</w>
proc esses</w>
oriun de</w>
extin sa</w>
ex ce
bl amed</w>
s mas
rep t</w>
es al
domicil iu</w>
deoseb ita</w>
Har rison</w>
vizit atori</w>
ort ul</w>
mijlo acele</w>
e h</w>
My an
Hit ler</w>
1 40</w>
sed inta</w>
sacr ific
eren ta</w>
demonstr ate</w>
comed ie</w>
atur ing</w>
thre w</w>
sym bol
s lo
lov ituri</w>
b inding</w>
K iev</w>
vig il
temper ature</w>
spokes person</w>
promis iunea</w>
fort ata</w>
em in
chin ezi</w>
Don nell</w>
Cos by</w>
some where</w>
so arta</w>
os h
inter venit</w>
film at</w>
ec os
descri be</w>
continu area</w>
asist ent</w>
argument eaza</w>
N eg
Myan mar</w>
r ated</w>
Mar s</w>
uim it</w>
ment ionate</w>
h unt</w>
gazd uit</w>
det in</w>
con sc
c z
amend a</w>
scrutin y</w>
pos it
Lou is
A fac
ur are</w>
tan arul</w>
p y</w>
gener atii</w>
eur s</w>
contr ary</w>
rel ative</w>
ram ase</w>
prospect s</w>
princip alii</w>
ore le</w>
ne ys</w>
ferov iar</w>
Uk ip</w>
199 0s</w>
preocup arile</w>
margin ea</w>
dis pusi</w>
detr iment
dec urs</w>
reduc erile</w>
ne aga</w>
invest itorilor</w>
echilib rul</w>
def ended</w>
as uma</w>
Wal ter</w>
1. 5</w>
pur poses</w>
mil iard</w>
al ert
wor thy</w>
prof ita</w>
perio adei</w>
intre ru
incl uz
condamn ati</w>
combust ibil</w>
Sud an</w>
A rena</w>
v ente</w>
id i</w>
cercet arii</w>
br ands</w>
arriv ing</w>
T igr
K ab
us cat</w>
up per</w>
te aching</w>
cercet ator</w>
Tig ers</w>
M ick</w>
Geor g
Dez vol
Champ ions</w>
tradit ionala</w>
obtin em</w>
M aur
trans actions</w>
traf ic
t ail</w>
fr ig
cal atoresc</w>
amb as
W ard</w>
occas ions</w>
ins asi</w>
combin atie</w>
chem ical</w>
ap reci
P ir
Fre edom</w>
or g</w>
mere u</w>
inf atis
S n
Harv ey</w>
C ir
un ity</w>
h ip</w>
civil ian</w>
afac erea</w>
a dep
P y
vict orii</w>
tol l</w>
super vision</w>
spani ola</w>
profesion ist</w>
mus ical</w>
im ile</w>
hand ling</w>
dep th</w>
consult anta</w>
co m</w>
anal ist</w>
P ict
Mis so
G on
st ere
sant iere</w>
restaur ante</w>
ne aparat</w>
lov es</w>
keep s</w>
j e
financ es</w>
f loo
dis proport
asu rer</w>
M erc
I cel
0 2</w>
succe ed</w>
gas esc</w>
el ele</w>
cal ificare</w>
M oo
K yr
Contr ol</w>
sh op
rut ina</w>
profess ion
plan ificare</w>
inc idente</w>
impartas esc</w>
v as</w>
stri ker</w>
person s</w>
nomin ation</w>
nis ip</w>
kill er</w>
hom e
elev ii</w>
ar an</w>
Sk y
z am
vot ului</w>
sh ut
hid den</w>
facil itate</w>
e poca</w>
costis itoare</w>
conflict s</w>
bloc ked</w>
af i</w>
Sha un</w>
Bel gia</w>
them e</w>
syst em
require ment</w>
re comanda</w>
id at</w>
fl ut
cl es</w>
al isti</w>
Penn syl
P ubl
C G</w>
sparg ator</w>
sett led</w>
n ative</w>
firm ly</w>
fe aturing</w>
de serve</w>
acc urate</w>
val abil</w>
ret eta</w>
re comp
az z</w>
Nor man</w>
Hug h</w>
Ar k
trav elled</w>
piet re</w>
op un</w>
lips ei</w>
al ista</w>
Per ry</w>
A D</w>
z von
w ich</w>
uncer tainty</w>
reg im</w>
israel ian</w>
gre s</w>
extraordin ara</w>
L loyd</w>
Den ver</w>
stad ion</w>
sil ence</w>
scrip t</w>
prevent ing</w>
ob tain</w>
helic opter</w>
finant elor</w>
explic it</w>
examin eaza</w>
concluz iile</w>
capt ure</w>
Occident ul</w>
Al bert</w>
mart ur
lab or</w>
intreg ii</w>
im poz
f ed</w>
201 9</w>
vre muri</w>
stri king</w>
reven ues</w>
pro be</w>
in er</w>
ed oms</w>
di eta</w>
U. N.</w>
M I
Lat in</w>
An ul</w>
2, 5</w>
prov iders</w>
infiint ata</w>
cent rele</w>
X I</w>
r ightly</w>
obligator iu</w>
ir ts</w>
inclus ion</w>
ier ra</w>
i erele</w>
econom is
N atal
198 8</w>
trez it</w>
fr atii</w>
fl av
exhib ition</w>
Saf ety</w>
Pennsyl vania</w>
C arta</w>
susp ension</w>
ridic area</w>
pl ot</w>
le ans</w>
iz ation</w>
ev al
Nov .</w>
Metr o</w>
H il
realiz are</w>
nic ii</w>
m alul</w>
el eg
desch ida</w>
S T
top ic</w>
mar fa</w>
ies irea</w>
fi inta</w>
compl y</w>
coll ected</w>
air lines</w>
S unn
K end
Jo el</w>
Car los</w>
rezolut ii</w>
protect ion
istor iei</w>
intreg ime</w>
intent ion
fac i</w>
de manded</w>
cl eared</w>
bud gets</w>
an za</w>
ambul anta</w>
Gr iff
transform area</w>
leg acy</w>
inevit abil</w>
distr uge</w>
ct ica</w>
spec ii</w>
sp ion
risc ului</w>
reg arded</w>
man der</w>
lu area</w>
intel ect
id ity</w>
clo thing</w>
cha os</w>
am ents</w>
B erg
therap y</w>
subiect e</w>
solic itare</w>
impress ion</w>
enter tainment</w>
cu r</w>
abor deze</w>
N aj
ur ne</w>
spor ita</w>
land ing</w>
j ack
disappoint ing</w>
bir d</w>
advis ed</w>
acuz a</w>
Misso uri</w>
Ch amber</w>
to b
or chest
n arr
funct ionat</w>
dis covery</w>
complex e</w>
autobuz ul</w>
al ert</w>
add ressing</w>
S I
M ort
wat er
stand ard
sond ajele</w>
protej eze</w>
mult in
j af</w>
it alian</w>
h at
fel ul</w>
decis ive</w>
bail out</w>
C le
prec ise</w>
em ite</w>
des emnat</w>
cur te</w>
ca derea</w>
avant aj
timp urie</w>
ra w</w>
inv ad
flex ibility</w>
cont urile</w>
bog at</w>
attr active</w>
V el
T S</w>
19 60</w>
pled ged</w>
describ es</w>
At ena</w>
.com. au</w>
maint ained</w>
ip per</w>
conduc erii</w>
R ose</w>
King dom</w>
AN Z</w>
vecin atate</w>
proport ion</w>
g alb
cop ac</w>
circumst ante</w>
arun ce</w>
Represent ative</w>
Egypt ian</w>
red und
quot ed</w>
interes ati</w>
a e</w>
scris ori</w>
abandon at</w>
S ierra</w>
P PE</w>
Chil dren</w>
urmar este</w>
on ii</w>
intoarc erea</w>
appl ic
Gol den</w>
st ire</w>
ren eg
pl ut
pil ot
ow ns</w>
finaliz area</w>
explos ion</w>
air y</w>
abort ion</w>
Le h
Dec .</w>
Bair d</w>
ific am</w>
ici ans</w>
g ang
expend iture</w>
St at
y ce</w>
w ill
oricar ei</w>
indic ator</w>
epis od</w>
em ar
ad vers
M it
Il lin
week ly</w>
recomand at</w>
portof ol
Eag les</w>
Cr icket</w>
trim ita</w>
solut ia</w>
sel ected</w>
mortg age</w>
i ang</w>
hal f
fact ory</w>
constr uite</w>
bel ong
Regul ation</w>
K or
r uta</w>
prosecut ion</w>
organ ismul</w>
obisnu iti</w>
coordon are</w>
rasp und
prom ising</w>
investig ated</w>
ere ly</w>
episcop ul</w>
capit an</w>
Ne ther
rar ely</w>
r in
l ot
ig no
g ul
exam ina</w>
eg gs</w>
sust ained</w>
sal ary</w>
pl asa</w>
exam ples</w>
concentr am</w>
bon ds</w>
Nic ol
Mc Con
Mar ie</w>
0 7</w>
typ ical</w>
t ears</w>
sanat oase</w>
medic ine</w>
j unior</w>
ific ari</w>
contact ed</w>
any way</w>
D ennis</w>
solicit am</w>
promov eaza</w>
proces ele</w>
ow nership</w>
furn iza</w>
eval ua</w>
descoper irea</w>
ch apt
ating erea</w>
at cher</w>
P ed
K any
Har per</w>
Charl eston</w>
Cair o</w>
vi itorului</w>
the atre</w>
luc rez</w>
estim at</w>
determin ata</w>
angaj eaza</w>
New man</w>
z bur
l ight
juc atorilor</w>
invest it</w>
introduc ing</w>
er ou</w>
Mex ican</w>
L um
par care</w>
olut ions</w>
locu intele</w>
ed itare</w>
dat eaza</w>
co ol
av ans</w>
ad au
Som alia</w>
M asters</w>
so il</w>
pass es</w>
h att
ful f
celebr ity</w>
arr ing</w>
Nether lands</w>
Ju an</w>
0 3</w>
sched ule</w>
house hold</w>
finant arii</w>
eb do</w>
distribut ie</w>
activ itatilor</w>
replac ement</w>
host s</w>
consc ious</w>
castig area</w>
amend ament</w>
Sen at</w>
Palest ini
Mar io</w>
B art
scho ol
r usi</w>
interdict ia</w>
contact at</w>
bar riers</w>
Stras bourg</w>
Illin ois</w>
B all
t ank</w>
r unde</w>
institut ie</w>
exces iva</w>
convict ion</w>
c igar
al ine
a ine</w>
a ii</w>
tin d</w>
scri itor</w>
plang eri</w>
ol er
it is</w>
doban zii</w>
distrib u
che ia</w>
camp s</w>
argum ents</w>
UC LA</w>
Jul ian</w>
Bir oul</w>
regul ate</w>
p asa</w>
off s</w>
l ion</w>
ingrozit oare</w>
incer c</w>
eg ipt
Sp ace</w>
Olimp ice</w>
J in
H ans
A ur</w>
197 9</w>
scenar iu</w>
rel at
re cover</w>
re am</w>
oc cur</w>
list ening</w>
foc using</w>
aleg atorilor</w>
V ide
S anch
Reg ala</w>
M et</w>
A br
up date</w>
subst ance</w>
retrag erea</w>
restrict ii</w>
od ds</w>
ex ac
audi ere</w>
as set</w>
Lyn ch</w>
un iver
per c
io l</w>
funct ionarea</w>
feder ala</w>
devast ating</w>
a ia</w>
V anc
Leg ea</w>
L anc
Ab ast</w>
v am
re memb
dez ast
Organiz atia</w>
ter n</w>
photograp her</w>
organis me</w>
interes ate</w>
drog urile</w>
defin ition</w>
J .
H ernandez</w>
German iei</w>
rol led</w>
rest ore</w>
march eaza</w>
guarant eed</w>
digit ala</w>
consult ati</w>
be y</w>
T oy
vech ile</w>
vanz arilor</w>
rel ess</w>
o asp
gaz elor</w>
et es</w>
bo w</w>
Wallab ies</w>
zi arul</w>
particip antii</w>
mas ive</w>
h unting</w>
e ks</w>
P itt
Ex press</w>
Burn s</w>
vehic ulele</w>
refuz ul</w>
ol og</w>
l en
imb at
angaj a</w>
w are</w>
ver dict
tour ist</w>
s on
retail ers</w>
rep atri
re mun
pre mis
jum ped</w>
et aje</w>
col t</w>
cl ock</w>
O f</w>
May or</w>
val uri</w>
text ile</w>
prezent area</w>
maint aining</w>
A uss
zon elor</w>
rid ing</w>
port fol
land scape</w>
lacr imi</w>
et ime</w>
bat ut</w>
ach i</w>
Thail and</w>
Portug alia</w>
198 6</w>
10 1</w>
0 6</w>
swit ch</w>
sal uta</w>
ple aded</w>
n est</w>
ina decv
cantar etul</w>
L ef
w id
por tr
ou ver</w>
mort al</w>
j un</w>
it ary</w>
hol es</w>
g ift</w>
cont ul</w>
che aper</w>
bre a
bel g
acqu is
Wel sh</w>
EC B</w>
A .
soc at</w>
separ atist
recl am
inv ec
h un
d ot
b or</w>
absur d</w>
perform ances</w>
mort ii</w>
il ustr
d use</w>
cuprin zatoare</w>
cinc ilea</w>
attr act</w>
Vanc ouver</w>
Jenn ifer</w>
Christ ians</w>
0 4</w>
sim ult
k id</w>
depart ure</w>
astr onom
O pen
Jan .</w>
Bos nia</w>
w arm
ul l
gath ering</w>
cl ear
bur ning</w>
E G
Ch all
urmar esc</w>
prefer at</w>
ofens iva</w>
fin ante</w>
constitut ion</w>
a qu
K on
C ult
C ort
2 6
sp ots</w>
rec ession</w>
maxim a</w>
contract e</w>
bog ata</w>
az eci</w>
M ans
Le ban
G un
An n</w>
re abil
presedint ia</w>
incer cari</w>
com fort</w>
O ak
ultim ate</w>
tr acks</w>
rob ust</w>
prop ose</w>
pier d</w>
mo od</w>
ch et</w>
L isa</w>
D y
Col omb
su red</w>
mur dered</w>
monitor izarea</w>
infr actiune</w>
im t
e am</w>
accompan ied</w>
Memor ial</w>
Ex ecut
Cercet are</w>
inc ai
guarant ees</w>
ge ograph
dispon ibila</w>
cred itele</w>
co h
bl ack
Nav y</w>
Kany e</w>
prepar ation</w>
nivel ului</w>
in l
graph y</w>
funct ioning</w>
b ij
art istic</w>
Cr uc
Agr icult
urmar ire</w>
tehnolog iei</w>
sez oane</w>
scur te</w>
memor ies</w>
i ao</w>
greut atea</w>
achiev ement</w>
U tah</w>
Intern e</w>
termin at</w>
read ers</w>
kid n
ju decat</w>
dut ies</w>
and y</w>
Roo sters</w>
res ed
produs ul</w>
pens ions</w>
pan ic</w>
j ef
expos ure</w>
exp unerea</w>
ar ipa</w>
Y an
Manu el</w>
L G
Erdo gan</w>
B og
us ive</w>
ton ul</w>
po arte</w>
p aza</w>
ir k</w>
de fl
coment eze</w>
Gib son</w>
A ri
sur ge</w>
folos im</w>
dezamag it</w>
concuren tei</w>
com emor
Te at
4 ,000</w>
inteleg em</w>
f als</w>
extin da</w>
exploz ia</w>
F ro
Abdul lah</w>
198 7</w>
tac ere</w>
t edly</w>
ster y</w>
run ner</w>
ri ors</w>
pup ils</w>
ofici alilor</w>
n atal</w>
ga z</w>
film ed</w>
caz ului</w>
L av
Ferr ari</w>
sprijin im</w>
ro unds</w>
oric um</w>
fo am
diver t
arg int</w>
Festiv alul</w>
t all</w>
re vers
r on
ol imp
intervi ev
fe ed
f anii</w>
dis pozitia</w>
deliver ing</w>
credibil ity</w>
condem ned</w>
ac ia</w>
Snow den</w>
F ire</w>
semn area</w>
relig ioasa</w>
permis iunea</w>
pag ub
organiz atiilor</w>
obser va</w>
ma inst
a a</w>
H ur
Fran co
targ eting</w>
re ch
pr af</w>
inloc ui</w>
eigh th</w>
dispozit iv</w>
H ogan</w>
F air</w>
1 000</w>
vis ible</w>
stun ning</w>
ste el</w>
sot ie</w>
pres idency</w>
por no
iv itate</w>
famil iar
chin eze</w>
am o</w>
Sanch ez</w>
w rap
sil ver</w>
ro of</w>
pra ised</w>
gu ess</w>
bi om
Wh at</w>
Q C</w>
sub ter
dr inks</w>
del ayed</w>
co ada</w>
volunt ari</w>
ter ibil</w>
sport ing</w>
ins ists</w>
fe el
f ate</w>
chocol ate</w>
S on
H end
B ou
teen age</w>
solut ionarea</w>
numero asele</w>
cre ada</w>
caz are</w>
bij ut
b rev
I stan
Bar on
mer ce</w>
m al</w>
int oler
exam ine</w>
em ed</w>
eliber are</w>
V W</w>
M ax
198 4</w>
197 0s</w>
test at</w>
rezer ve</w>
ona ire</w>
m m</w>
impact ului</w>
f ighter</w>
elev i</w>
el ie</w>
colabor are</w>
bl e
afford able</w>
P lar
Celt ic</w>
solidar itatea</w>
mit ing</w>
intel lect
includ a</w>
hol der</w>
h en</w>
cal itatii</w>
Or leans</w>
se z</w>
reun iunea</w>
b and
ace y</w>
sp use</w>
pov ara</w>
om ed</w>
er up
deleg ation</w>
arch itect
G av
15 .
soci alist</w>
rev er</w>
prov en</w>
protect iei</w>
obstac ol</w>
h n</w>
urmar easca</w>
u be</w>
t aught</w>
surviv ors</w>
s op
ple aca</w>
manufactu rers</w>
mac ro
cop y</w>
conv inge</w>
clim a</w>
b ea</w>
autom at</w>
Def ense</w>
D J</w>
zg ud
ove hic
k er
is prezece</w>
is me</w>
imp ose</w>
circul atie</w>
ca uc
autor itati</w>
I d
Br un
Al be</w>
tow ns</w>
lact ate</w>
industr iala</w>
imobili are</w>
cant ec</w>
buget ar</w>
aut ovehic
att ered</w>
compl ained</w>
ur cat</w>
trec em</w>
nut r
mat h</w>
ingr op
ha ul</w>
fundament ala</w>
facil it
don ors</w>
dis pus</w>
destruct ion</w>
cred ite</w>
augh ters</w>
M S</w>
tot ale</w>
m urile</w>
lov ita</w>
eng agement</w>
ear ning</w>
cult urii</w>
b as</w>
appro ached</w>
F red
sport ive</w>
s son</w>
imp ort</w>
deget ul</w>
caracterist ici</w>
St urgeon</w>
B est</w>
198 5</w>
mas ac
import s</w>
clin ical</w>
calator it</w>
B P</w>
refer indu</w>
program ata</w>
priv iti</w>
comed ian</w>
att ending</w>
ass es</w>
al in
W ood
R ic
Cr oss</w>
trat ati</w>
surviv al</w>
some how</w>
re bo
evalu ate</w>
dove deste</w>
Rep ort</w>
Gol f</w>
E ti
E R</w>
volunt eers</w>
progres s
locu intelor</w>
activ istii</w>
var ietate</w>
rol ling</w>
luc t
lan sa</w>
h ill</w>
b id
ME Ps</w>
Gu y</w>
Gab ri
- -
su itable</w>
p it</w>
inaccept abil</w>
excel ent</w>
ex emple</w>
coordin ated</w>
com is</w>
australi enii</w>
arest are</w>
Fol ey</w>
ul elor</w>
scl av
report erul</w>
mas iva</w>
biser icii</w>
b ibliot
ar he
P at</w>
v el
mar gin</w>
ist em
i ously</w>
exp ense</w>
brief ly</w>
br az
T ak
Nichol as</w>
Moham mad</w>
De b
writ ers</w>
retr ospect
mor mant
execut ion</w>
et ta</w>
consist ently</w>
collap sed</w>
at itudinea</w>
as ume</w>
ade le</w>
R ef
Mis s
raport area</w>
ramb urs
fost i</w>
busin ess
atr aga</w>
adev ar
V o
Fil ip
F ern
Cr on
ud ing</w>
tre cute</w>
lo go</w>
incuraj at</w>
ig a</w>
gy m</w>
Sch ul
P ost
t an</w>
soc cer</w>
person ajele</w>
enjo ying</w>
co aches</w>
amend amente</w>
Lu k
H ear
utiliz ator</w>
sold atii</w>
sc orul</w>
milit ari</w>
def end
au de</w>
Sen ator</w>
Organ isation</w>
Nor way</w>
trept at</w>
sear ching</w>
person aje</w>
invest ing</w>
fre edoms</w>
exclu de</w>
dec ida</w>
any body</w>
agres iv</w>
Par ram
Lu x
la v</w>
ins ist</w>
innoc ent</w>
dez i</w>
control eaza</w>
c ini</w>
c abl
Ar ch
. org</w>
se fii</w>
regiz orul</w>
refl ected</w>
program at</w>
ic e
ha ine</w>
gand i</w>
class es</w>
b ast
ascun se</w>
Web b</w>
Pro duc
Am end
prop usa</w>
engine ering</w>
div ided</w>
bucat arie</w>
Om ului</w>
Oc t.</w>
Lar ry</w>
salar iul</w>
oblig ation</w>
emb ar
cinemat ograf
av ant</w>
artific ial</w>
T on
Fund atia</w>
ush ing</w>
swim ming</w>
p ages</w>
juc am</w>
int recut</w>
ex on
answ ered</w>
acuz atie</w>
US C</w>
Phil ipp
L ag
Hel en</w>
Bob by</w>
stran se</w>
sh ocking</w>
gener ated</w>
en ance</w>
celebr ated</w>
acces ului</w>
tri pl
tr ol
suspic ion</w>
marit im</w>
emphas is</w>
cer ul</w>
after wards</w>
Sh ell</w>
2 3
sustin uta</w>
stere ot
pedeps ei</w>
fr at
dir ij
cr azy</w>
astept ate</w>
ambl ing</w>
Cow boys</w>
Agent ia</w>
resist ance</w>
rec ip
inter views</w>
corupt iei</w>
chelt ui</w>
Pl an</w>
tack ling</w>
s atul</w>
protestat arii</w>
monet ary</w>
firm ei</w>
decl are</w>
attr acted</w>
af a</w>
U american</w>
P iata</w>
Istan bul</w>
Franco is</w>
transport ului</w>
teh nic</w>
pre supusa</w>
pas ari</w>
pap ers</w>
opo ulos</w>
host ed</w>
gran itele</w>
finaliz at</w>
bil lions</w>
autor ii</w>
at as
S tra
S f
R h
F T</w>
recommend ation</w>
r ang
jo ke</w>
in mormant
ig e</w>
ide aza</w>
ex trad
decis iv</w>
b is
Ch urch
wh is
un uia</w>
see ks</w>
rezult atelor</w>
p an</w>
ot te</w>
op pose</w>
lov i</w>
lim itele</w>
integr ate</w>
cont uri</w>
circumst antele</w>
ch ann
appreci ate</w>
J on</w>
H ebdo</w>
Agent iei</w>
A er
un itati</w>
stup id</w>
intro duse</w>
cu ban
compar ison</w>
cel ule</w>
aj elor</w>
R on</w>
propr ie</w>
ov ers</w>
oss il</w>
lapt e</w>
lab el</w>
imbat ran
gr oss</w>
c am</w>
break fast</w>
Tech nolog
Bey once</w>
z h
th rowing</w>
ta ke
simb ol
norm ala</w>
convent ional</w>
automob il
adaug ata</w>
W enger</w>
John ny</w>
Co ach</w>
B M
wr ong
sum e</w>
s are</w>
per mission</w>
i b</w>
e ut
dif f</w>
camp ion</w>
sh ip
met ro
ass ure</w>
V ill
por tre
par i
intern etul</w>
in fur
imbunatati ri</w>
ific ations</w>
cred itorii</w>
bin ele</w>
abo reze</w>
Sw ans
J erry</w>
test ul</w>
recipro c</w>
rat ings</w>
raport ate</w>
organiz eze</w>
mag ic</w>
ind ul
impus cat
ge on</w>
fa ke</w>
di esel</w>
R em
Co st
weal thy</w>
re mur
mp h</w>
mart or</w>
ili ation</w>
gan deasca</w>
f lood</w>
dis abled</w>
d inainte</w>
crow ds</w>
bi ke</w>
ath on</w>
anx iety</w>
ant i
advis er</w>
Feb .</w>
C ass
Bron cos</w>
w y
viz elor</w>
sustin em</w>
reci proc
program elor</w>
ous ness</w>
me al</w>
furniz ate</w>
explan ation</w>
d uri</w>
carn ea</w>
cad ou</w>
c up</w>
bol nav
bo ards</w>
W ang</w>
P it
Li thu
Indi ei</w>
val ul</w>
redres area</w>
pron unt
os is</w>
net t</w>
nec l
inclu derea</w>
iP ad</w>
h oo
amuz ant</w>
ab st
Pat ri
P D</w>
M ik
In esal
wit z</w>
s burgh</w>
pan ica</w>
it ari</w>
invat amant</w>
infrang ere</w>
ill er</w>
fact orii</w>
dez astr
d atorii</w>
cut remur
conflict ului</w>
an n</w>
M ak
Fr aser</w>
satis fied</w>
preocup are</w>
ir ul</w>
implic ata</w>
c uc
act orii</w>
abuz ul</w>
tur istii</w>
stret ch</w>
sch i</w>
sanat os</w>
pregat ite</w>
new s
lifest yle</w>
exh aust
examin at</w>
control at</w>
avi ation</w>
agric ola</w>
Wel ls</w>
Pop ular</w>
H ills</w>
C atal
solicit area</w>
ock ets</w>
k inds</w>
fost ii</w>
compet entele</w>
bil aterale</w>
Jap oniei</w>
Def ence</w>
At tor
Ass embly</w>
priv i</w>
intr un
i jo
capt ura</w>
Kar l</w>
sh ine</w>
lider ului</w>
indic ate</w>
flo oding</w>
feel ings</w>
bow ling</w>
be an</w>
af g
Distr ict
Alban ia</w>
surro unded</w>
re ject</w>
jurn alist</w>
aproviz ionare</w>
ac he</w>
K am
studi at</w>
recunoast em</w>
presedint ie</w>
justi fied</w>
al ismul</w>
Th atcher</w>
K ey
marf uri</w>
l asting</w>
ingr ijo
flex ible</w>
an c</w>
Sum mit</w>
J ac
D ean</w>
teren uri</w>
press ing</w>
hom eless</w>
fal iment</w>
cons ens</w>
at atii</w>
Cre ek</w>
Bull dogs</w>
ve to</w>
sw ire</w>
recunos cat
inv in
id erii</w>
hand ful</w>
den y</w>
cond ol
actu alizat</w>
San atate</w>
Am n
izol ate</w>
Car diff</w>
wal ks</w>
v ase</w>
sho es</w>
rev olution</w>
mart orii</w>
magaz inul</w>
insur g
ific arii</w>
gu est</w>
ell ers</w>
effect iveness</w>
e arth</w>
bi k
acord ate</w>
acc o</w>
superio ara</w>
spectac ole</w>
rezon abil</w>
record ing</w>
re luct
r on</w>
motoc icl
impres ia</w>
imp use</w>
firef ighters</w>
auct ion</w>
Pot ter</w>
Lop ez</w>
Le ader</w>
phenomen on</w>
pastr am</w>
en de
d aughters</w>
cumpar area</w>
cat ol
appro ve</w>
ale g</w>
Ol anda</w>
s el</w>
ros ie</w>
regener abile</w>
pu b</w>
mon s</w>
lic eu</w>
hy dr
hon our
holid ays</w>
B ell
rapport eurs</w>
indic iu</w>
don ations</w>
dis asters</w>
bloc ks</w>
Dom in
Bag h
wor n</w>
wat ch
tit les</w>
omag iu</w>
franch ise</w>
f ai
athlet es</w>
R ah
AC T</w>
w anting</w>
rug ac
loc atia</w>
liv an</w>
k ov
int end</w>
fotbal ului</w>
en ship</w>
deplas eaza</w>
confis cat</w>
att end
alu at</w>
aliment ar</w>
Norveg ia</w>
De ut
Church ill</w>
spec ifica</w>
sect ie</w>
o stat
natiun ea</w>
n ose</w>
f ossil</w>
docum entul</w>
benz ina</w>
Na than</w>
Jul ie</w>
no ise</w>
gen oc
dr ought</w>
deciz iei</w>
at on</w>
amint i</w>
aff air</w>
S oph
R ome</w>
Fort ei</w>
y ro
vest ea</w>
van atoare</w>
u irii</w>
public ation</w>
m inc
facil ita</w>
cr y</w>
capac itatii</w>
Ros ie</w>
Amn esty</w>
um ple</w>
p ath
j er
eg ale</w>
Bu reau</w>
Attor ney</w>
to il
popular ity</w>
oblig atorii</w>
criter iile</w>
F all
uman itar</w>
uc idere</w>
k ara</w>
int ent</w>
desfas ura</w>
The atre</w>
Spec ial</w>
Pl ace</w>
M OR
rout ine</w>
repl ica</w>
oc h</w>
journ al</w>
ig ation</w>
deliber at</w>
arrang ements</w>
Program me</w>
Pitt sburgh</w>
H art</w>
trim ise</w>
th i</w>
terr itorial</w>
pozit iile</w>
li onaire</w>
extrem ists</w>
en ey</w>
R d</w>
1 60</w>
1 2,
interes anta</w>
if ies</w>
gand ire</w>
elig ible</w>
cal cul</w>
argu ing</w>
affect s</w>
J ol
wor rying</w>
v ii</w>
spir it
sevent h</w>
log ic</w>
h ide</w>
ed itorial</w>
bo und
ass ume</w>
Sul livan</w>
Sir iei</w>
som n</w>
retrag ere</w>
p ist
kil ogr
ic area</w>
access ible</w>
Pier re</w>
Al ice</w>
A G</w>
zil nic</w>
rac ial</w>
rac es</w>
past reaza</w>
gos pod
dese uri</w>
civil i</w>
Ron ald</w>
Mediter ana</w>
opin ions</w>
opin iei</w>
o do
neighbour ing</w>
lic ence</w>
inst inc
il ly</w>
foc ului</w>
ert son</w>
eliber ati</w>
R AF</w>
En ter
C raw
str ö
head lines</w>
boy friend</w>
Ne ill</w>
M ali
20 th</w>
invest ed</w>
implement area</w>
d t</w>
O N</w>
F ort</w>
Comit etului</w>
ov ina</w>
inter im</w>
cy ber</w>
bir oului</w>
Pear ce</w>
Lat ina</w>
Afac eri</w>
A j
ser a</w>
sc um
respect ul</w>
recuno asca</w>
point ing</w>
plas eaza</w>
operatiun ilor</w>
mat ur
fr ame</w>
exp enses</w>
ew ay</w>
cutrem ur</w>
avant ajul</w>
at ta</w>
G od
su its</w>
raspund ere</w>
pet re
minor itatilor</w>
contain ing</w>
con ex
chest iunile</w>
We ek</w>
Inesal ram</w>
Canc er</w>
vi ol</w>
thous and</w>
isl ands</w>
ben ch
amb assador</w>
Kab ul</w>
Carol ine</w>
unve iled</w>
r amp
prezident iala</w>
organiz ations</w>
il legally</w>
ies ire</w>
difuz at</w>
depend s</w>
co aching</w>
ch icken</w>
can al</w>
3 60</w>
sect oare</w>
put inta</w>
premi ere</w>
lip s</w>
divert isment</w>
continu u</w>
att ached</w>
N SA</w>
regul ators</w>
o h
o es</w>
nevo it</w>
impied icat</w>
cop ie</w>
at ata</w>
Pentag on</w>
Ash ley</w>
w ore</w>
vre m</w>
strö m</w>
presedint iei</w>
pred area</w>
pip eline</w>
min ime</w>
it ar
guvern e</w>
eg alitatii</w>
drum urile</w>
confr on
aut ent
ac ei</w>
Olymp ics</w>
H op
inregistr arile</w>
infl or
f eared</w>
cred its</w>
calator iile</w>
apt itud
Gol ful</w>
tem erilor</w>
im ate</w>
fin es</w>
feric iti</w>
explo itation</w>
decl ans
deciz iilor</w>
confort abil</w>
spit ale</w>
ing ent</w>
impl ice</w>
echit abil</w>
cul min
castig and</w>
amint im</w>
OR K</w>
Mor rison</w>
Irak ului</w>
s essions</w>
ou b
dese urilor</w>
descur ce</w>
controvers at</w>
contro ale</w>
an unt</w>
W indo
Fam ily</w>
spe ech
republic ana</w>
manag ement
br anch</w>
ac es</w>
P ad
N ine</w>
select ie</w>
parlament ul</w>
parlament arilor</w>
o anele</w>
mort i</w>
at ent</w>
Occ ident</w>
Kend all</w>
Ch a
Ark ansas</w>
telecom unic
mant le</w>
har ass
ec k</w>
R ice</w>
H ass
Gold man</w>
Coleg iul</w>
sustain ability</w>
opt iunile</w>
igu ez</w>
conf isc
Sof ia</w>
B CE</w>
An n
y cl
scum pe</w>
ier ului</w>
convers atie</w>
asist entei</w>
Re agan</w>
N az
univers itate</w>
post uri</w>
exist s</w>
cre ates</w>
Val ent
Li z</w>
Con n
sli de</w>
reven ire</w>
ram as
pregn ancy</w>
pregati rea</w>
parlament arul</w>
negoti ate</w>
man ia</w>
judic iar</w>
inov are</w>
diferen te</w>
de jun</w>
bu b
ampl oarea</w>
alb astra</w>
Soc cer
R and</w>
Mal m
Ir landei</w>
lad y</w>
exploat area</w>
acknow ledge</w>
Y ORK</w>
Rodr iguez</w>
Monet ary</w>
Gal axy</w>
Aberde en</w>
198 2</w>
urmar irea</w>
tox ic</w>
scre ening</w>
perspect ivele</w>
evalu ation</w>
eg g</w>
ec um</w>
cred itelor</w>
cont in</w>
cl oud</w>
apl ice</w>
Sh ef
Sec ret</w>
S eb
5 m</w>
tel eph
supar at</w>
sol ida</w>
scufund at</w>
sanct iunile</w>
salbat ice</w>
priv el
meci urile</w>
m ultimii</w>
il umin
graf ic</w>
ev ski</w>
et ball</w>
ded icat</w>
d inti</w>
crim ei</w>
cop aci</w>
T ob
v ag
stad ionul</w>
scrip tion</w>
hot els</w>
g el
for th
acuz ata</w>
actu alizata</w>
Comit etul</w>
Co x</w>
span iol</w>
solut iona</w>
meteor ologice</w>
depend ing</w>
comunic area</w>
bot tle</w>
aut umn</w>
at urilor</w>
aliz ari</w>
Del hi</w>
stor ms</w>
sp in</w>
respond ing</w>
le an
japon ez</w>
intro duca</w>
incal cari</w>
experi encing</w>
e ol
dou azeci</w>
cerer ilor</w>
c ult</w>
appl ies</w>
X V
W ik
Ofici ul</w>
windo ws</w>
subsequ ent</w>
rev ina</w>
reglement arile</w>
min ore</w>
int ensive</w>
incre derii</w>
defe ated</w>
cunost inte</w>
amb elor</w>
agent ie</w>
J ur
Car l</w>
perio ds</w>
mention ez</w>
lo d
intern etului</w>
fort ate</w>
bur ied</w>
Con nor</w>
rescu ed</w>
munt e</w>
lucr and</w>
imp us</w>
hatt an</w>
de emed</w>
bil a</w>
sed ere</w>
ran ks</w>
o ret
fr aud
exp anded</w>
atent iei</w>
apart amentul</w>
Or ange</w>
L ong</w>
Jo yce</w>
F T
Bern ard
es pe
depist at</w>
ceremon ia</w>
U p</w>
Gu in
C ann
7 50</w>
reflect s</w>
m iz
expl ore</w>
el an</w>
consil iile</w>
co stat</w>
Schul z</w>
umpl ut</w>
reg ala</w>
ofer indu</w>
lo e</w>
exp use</w>
ere s</w>
diferen tele</w>
consum ului</w>
S c
Jin ping</w>
Bash ar</w>
virt ual</w>
trai m</w>
r ush</w>
met ode</w>
less on</w>
in der</w>
f li
describ ing</w>
clin ic</w>
vizit atorii</w>
remarc abila</w>
razbun are</w>
prezent and</w>
partide lor</w>
mi ezul</w>
hor ses</w>
concluz ie</w>
Reprezent ant</w>
P amant</w>
Mur doc
Fe b</w>
C .
tri als</w>
super market
strateg ice</w>
r anging</w>
nebun ie</w>
loc als</w>
element ele</w>
cere m</w>
tens iunile</w>
s ap
pag ube</w>
n ului</w>
men ite</w>
intarz iere</w>
fer m
exp anding</w>
descar carea</w>
bar rel</w>
Thail anda</w>
St ation</w>
I er
A B
tre imi</w>
tr atate</w>
st irile</w>
satel it</w>
opon entii</w>
off ence</w>
neighbor hood</w>
judg ment</w>
dialog ul</w>
br a
astept ata</w>
Luc y</w>
J av
s lum
ic onic</w>
dign ity</w>
crimin als</w>
colect area</w>
amend amentul</w>
Trib un
Bar nes</w>
B ar</w>
pozit iei</w>
plat este</w>
gran itelor</w>
forth coming</w>
cred itors</w>
atiun ea</w>
War riors</w>
un ora</w>
tr ist</w>
s its</w>
profit urile</w>
p iste</w>
p ill
lin e
dol arul</w>
desp er
Windo ws</w>
P ete</w>
Man hattan</w>
C af
B ad
Al aska</w>
su pusi</w>
sm ugg
re verse</w>
judici are</w>
in ata</w>
g ood
direct ors</w>
cumpar atorii</w>
bir ouri</w>
b arg
ay ton</w>
asasin area</w>
aprob are</w>
accident al</w>
S V</w>
per ifer
p um
occident ala</w>
l auda</w>
k ov</w>
j e</w>
gu idance</w>
en ce
diz abilitati</w>
croaz iera</w>
bacter ia</w>
auz i</w>
ast on
accus ations</w>
L .</w>
Administr ation</w>
197 5</w>
veter ans</w>
simil arly</w>
l antul</w>
j ew
inv ete</w>
h arm
flow ers</w>
c ed</w>
Mich el</w>
B un
Al ison</w>
sinc ere</w>
ro utes</w>
prom ite</w>
oar ecum</w>
horr or</w>
difer itelor</w>
critic ile</w>
bil etele</w>
as ilor</w>
San atatii</w>
Prot ect
Ash es</w>
r ation
pract icile</w>
industr i
for gotten</w>
bloc h
audi erea</w>
V is
G ard
sport ul</w>
sett le</w>
min ds</w>
follow ers</w>
fiic ei</w>
discrimin are</w>
al g
P on
Co ur
un eia</w>
stim ula</w>
reser ve</w>
recunoast ere</w>
observ ed</w>
l ists</w>
ight ened</w>
h ect
gu ards</w>
exp ed
Lau ren</w>
B B
sect iunea</w>
r atelor</w>
proced urilor</w>
larg ul</w>
fir ing</w>
f is
benefici at</w>
affect ing</w>
Sh i
Nad al</w>
Jew s</w>
Bel fast</w>
uc ida</w>
re tain</w>
gres eli</w>
Dezvol tare</w>
war nings</w>
tr ata</w>
mosten irea</w>
l os
confer intei</w>
af is
Jef frey</w>
J ong</w>
Aug .</w>
A be</w>
with draw
olog ists</w>
intreb ati</w>
inter medi
incet eze</w>
gr ass</w>
fin ishing</w>
fin anta</w>
elabor ate</w>
cos met
canc elled</w>
at trib
as ia</w>
al arm
Wis cons
Rob ertson</w>
LG BT</w>
L in
vis ul</w>
t ive</w>
sex ually</w>
publ ici</w>
prefer red</w>
n av</w>
medic ament</w>
las am</w>
invest or</w>
bl ast</w>
aloc at</w>
C F
um i</w>
recomand arile</w>
profession als</w>
p istol</w>
indiv izi</w>
h ired</w>
ger mane</w>
ecolog ic</w>
divid end</w>
crit erii</w>
control a</w>
amb ition</w>
Re bec
Pol ish</w>
MOR E</w>
J on
satell ite</w>
qu it</w>
prizon ieri</w>
mol ec
mo m</w>
insot it</w>
indic ation</w>
i z</w>
faim oasa</w>
des fiint
de ment
advoc ates</w>
Ins ula</w>
soldi er</w>
rezolut iei</w>
pierd erile</w>
permit and</w>
o en
mar ch</w>
man ev
inter pre
as ez
Toy ota</w>
Di ana</w>
norm elor</w>
house holds</w>
feed back</w>
compet ing</w>
baz eze</w>
bat rani</w>
ascult at</w>
aer ului</w>
Wiscons in</w>
T ol
198 3</w>
urm ata</w>
ste ady</w>
p ah
out break</w>
nast erea</w>
ion ships</w>
ion ar</w>
in elor</w>
impress ed</w>
congrat ul
S port
trans at
nav al</w>
medic amentele</w>
ist ics</w>
igno red</w>
dr opping</w>
controvers ata</w>
champ ions</w>
ass ic</w>
adoles centi</w>
Jes se</w>
J os</w>
Ier usal
sm ile</w>
res ign
r ara</w>
pens ionare</w>
interes elor</w>
inf ection</w>
concept ul</w>
assa ult
Thur ston</w>
P .</w>
L ittle</w>
Chall enge</w>
v iv
suggest ion</w>
standar delor</w>
sens ibile</w>
sar it</w>
rac ist</w>
pas ul</w>
organ ismele</w>
las h</w>
indic ele</w>
drag i</w>
corp ului</w>
conn ect</w>
cl inica</w>
brus ca</w>
bon us</w>
arrest s</w>
ur ata</w>
under lying</w>
trad uc
sud den</w>
su fl
ser g
s oarele</w>
om en
modific ari</w>
disci pline</w>
aprop iati</w>
Ver zilor</w>
work force</w>
tr ail
sh ame</w>
salar iu</w>
promov eze</w>
liter ally</w>
finant at</w>
evalu at</w>
destro y</w>
des emn
Palestini ans</w>
N C
Murdoc h</w>
Maj or</w>
Jud ge</w>
tw enty</w>
there by</w>
tem elie</w>
st al
ra ises</w>
medic ines</w>
deploy ed</w>
bol ilor</w>
av ionului</w>
ajung em</w>
N em
Icel and</w>
sh out
r ocket</w>
peric olul</w>
mon thly</w>
me ets</w>
lips ita</w>
kn ocked</w>
integr ity</w>
fro zen</w>
buc urie</w>
ug os
strateg ica</w>
spect atori</w>
re ts</w>
pl edge</w>
luc rul</w>
hel p
em ise</w>
dam aging</w>
compl icat</w>
collabor ation</w>
binec u
ac on</w>
Sh ane</w>
Ro oney</w>
supr a
rec ast
protoc ol</w>
por c</w>
ow ski</w>
natur ala</w>
demis ia</w>
caf e</w>
T err
Stu di
Jer usal
Cla ire</w>
un ited</w>
sing ing</w>
s ley</w>
raport orul</w>
preg ati</w>
p ui</w>
ocup arii</w>
ocaz ii</w>
linist ita</w>
incerc ati</w>
cond amna</w>
citiz enship</w>
asist at</w>
appl ying</w>
ad ere</w>
4 9
1 11</w>
tip ic</w>
ris en</w>
priv easca</w>
pow ered</w>
pere che</w>
mem oria</w>
h anging</w>
ass ur
Rebec ca</w>
C all
v at
proiect at</w>
munt ele</w>
mand atory</w>
fle eing</w>
concluz ia</w>
achizit ionat</w>
tem eiul</w>
sov iet
my stery</w>
imigr atiei</w>
i a
cr on
behav ior</w>
B O</w>
zbor urile</w>
t ape</w>
societ ati</w>
restrict ed</w>
prin de</w>
num iti</w>
di um</w>
cand ida</w>
Shef field</w>
Jerusal em</w>
F DA</w>
Con go</w>
A ve</w>
sot iei</w>
sarac ia</w>
profesion isti</w>
profes ori</w>
ofit erilor</w>
ingrij irea</w>
he im</w>
guvern amant</w>
f est
d d
be aring</w>
air strikes</w>
Matthe ws</w>
Bar cl
subsid ies</w>
spati ului</w>
s ampl
presup un</w>
let ting</w>
i ew</w>
diab etes</w>
com mander</w>
challeng ed</w>
Stand ard</w>
Pal atul</w>
Mil an</w>
G B</w>
D ick</w>
Ca uc
viol ation</w>
sec ured</w>
ot el</w>
laun ching</w>
inch es</w>
concentr ate</w>
bol lah</w>
Ste aua</w>
H ob
Burn ham</w>
person ality</w>
pat ern
integr are</w>
g if
exac erb
cal ificat</w>
T en</w>
Sh aw</w>
S W
L or
K hal
Indon es
Gar cia</w>
Con feder
suspect i</w>
jo y</w>
dezval ui</w>
ch ip</w>
Swans ea</w>
Seb ast
Invest ment</w>
societat ile</w>
pre dea</w>
obtin and</w>
ip er</w>
inv oc
felic itat</w>
escap ed</w>
cap abili</w>
adop ting</w>
Lim ited</w>
An ului</w>
4 50</w>
veter in
squ e
lupt ei</w>
i ano</w>
gazdu ieste</w>
film ing</w>
cons ent</w>
acord am</w>
C are</w>
transfer ul</w>
respect at</w>
res idential</w>
l oud</w>
Mag ic</w>
L iu</w>
viz ibil</w>
tempor ar</w>
sustin ute</w>
prim ite</w>
mov ements</w>
h rana</w>
fo rever</w>
al iste</w>
Execut ive</w>
Ar t</w>
realiz eze</w>
guvern elor</w>
O mar</w>
An dr
16 .
te es</w>
tal ente</w>
s aci</w>
recuper a</w>
labor ator</w>
ed at</w>
difficult y</w>
consec venta</w>
co gn
at en
antrepre nor
Vide o</w>
Air bus</w>
te x</w>
ser ioasa</w>
sc h</w>
num este</w>
membr a</w>
frunt ea</w>
al unec
D ylan</w>
w av
seem ingly</w>
pain ful</w>
declar ation</w>
C C</w>
Bernard ino</w>
y uan</w>
teritor iu</w>
suggest ions</w>
p act</w>
ch est</w>
ad verse</w>
Presedint iei</w>
P GA</w>
Ham mond</w>
z and</w>
spe akers</w>
serg entul</w>
pe op
and ers</w>
ad or
Rich mond</w>
y e
thor n</w>
read s</w>
r are
opt iunea</w>
con gress
cat astr
arunc ate</w>
Princ ess</w>
w ishes</w>
espe are</w>
comp ara</w>
c ator
To day</w>
Shak espeare</w>
ur ies</w>
un iune</w>
pac ea</w>
irlan dez</w>
gig antul</w>
en counter</w>
defic itul</w>
controver sa</w>
comis ii</w>
al y</w>
acqu ired</w>
absol v
Hus se
sur plus</w>
p att
eg ala</w>
aw i</w>
anc ies</w>
N P</w>
pun ere</w>
l ase</w>
ingredi ents</w>
ig o</w>
di rea</w>
desc end
comerci antii</w>
cant itate</w>
Pro v
Es sex</w>
E ast
signific ance</w>
re views</w>
o z</w>
mar ilor</w>
d ary</w>
cator va</w>
c able</w>
W ell
Tw o</w>
teror ismul</w>
teleph one</w>
tablo ul</w>
sub jects</w>
presup us</w>
ocup are</w>
iub it</w>
h air
eveniment elor</w>
d airy</w>
cart on
al ising</w>
add afi</w>
Tit ans</w>
L ov
H ez
where as</w>
t elor</w>
steag ul</w>
smart phone</w>
repet ate</w>
phil os
ipp i</w>
efici entei</w>
bot t
ap og
adolescent ii</w>
Rom an</w>
30 pm</w>
sprijin ului</w>
plec area</w>
ern s</w>
apol is</w>
aline atul</w>
thre sh
sh aw</w>
lov ely</w>
is ingly</w>
investig at</w>
inter viewed</w>
ident ificarea</w>
est ic</w>
desfasur area</w>
cel ulele</w>
audi enta</w>
J ak
Adr ian</w>
thir ds</w>
sw ing</w>
stat ut</w>
pro stitut
pass ion</w>
max im</w>
inv az
fle w</w>
conced iu</w>
Ro h
P G</w>
A eri
subst ante</w>
reser ves</w>
prevaz ute</w>
ex emp
enem y</w>
dyn amic</w>
doub ts</w>
divers itatea</w>
cumpar atori</w>
con curs</w>
aplic ate</w>
ab ora</w>
y side</w>
v owed</w>
tim ing</w>
tai at</w>
prim im</w>
mention and</w>
m ustr
ill ion</w>
id al</w>
gradu ate</w>
desc op
cr uce</w>
che ese</w>
amend amentele</w>
acr i</w>
O ut</w>
telefo ane</w>
renew ed</w>
r ough</w>
quart er
not ing</w>
ere na</w>
enthus i
destin ation</w>
depas easca</w>
deep er</w>
coll ect</w>
Pr o</w>
P il
web sites</w>
w ind
shar k</w>
nes ig
inst all
fil tr
crim ele</w>
bolnav i</w>
Far ah</w>
vest ile</w>
ma ini</w>
intent ionat</w>
hop eful</w>
consil iere</w>
Ker r</w>
H uck
tr apped</w>
r ushed</w>
form ele</w>
esp ect
er area</w>
cinc ea</w>
R uth</w>
N ight</w>
Bar n
Ar n
respect ively</w>
igur anta</w>
honour able</w>
er ori</w>
cot e</w>
baut ura</w>
S econ
tere stre</w>
suver an
remarc ile</w>
pic king</w>
man iera</w>
m o</w>
fac andu</w>
cross ed</w>
che f</w>
Mon tre
Ch arter</w>
port oc
exam ined</w>
ex curs
dis appeared</w>
crit ice</w>
contr av
Ver mont</w>
19 .
ton nes</w>
teen agers</w>
ses iuni</w>
recru it
ob struct
imag ina</w>
gol den</w>
efect iv</w>
ch i</w>
car ries</w>
aliment at</w>
G az
Feder ation</w>
F O
vol umul</w>
un expected</w>
th in</w>
promot ed</w>
par ks</w>
h alt</w>
go ale</w>
cotidi anul</w>
condamn ata</w>
c on</w>
ab und
H ut
Che ika</w>
Bir oului</w>
urg ently</w>
tranzact ii</w>
studi ed</w>
sle eping</w>
sco ate</w>
pow er
p az
organ ic</w>
musul mane</w>
met o
mean ing
inter v
ik h</w>
eth eless</w>
el ef
cain ii</w>
autor itate</w>
artic olele</w>
ambit ios</w>
OS CE</w>
2 1st</w>
ur na</w>
tric ou</w>
par ade</w>
non etheless</w>
nerv ous</w>
modific area</w>
mainst ream</w>
lucr are</w>
lin ing</w>
i enii</w>
ampren ta</w>
adaug ati</w>
W ay</w>
U g
Kenn y</w>
Gir l</w>
Co ul
196 8</w>
ut at</w>
urg ing</w>
transfer red</w>
trans plant</w>
ro bot</w>
rad ar</w>
palest inian</w>
o ke</w>
lif ting</w>
l ington</w>
iel ds</w>
funct ional</w>
dec es</w>
cruc iala</w>
cauz ate</w>
bucat arii</w>
au er</w>
ad ap
action am</w>
Ol impi
Dan emar
Cr im
Coal ition</w>
scar ed</w>
reprezent ant</w>
premi ership</w>
per tur
obligator ie</w>
incendi ul</w>
fa kis</w>
cin ema</w>
camp ionul</w>
ambul ance</w>
afirm and</w>
Ph ot
P O
J arr
volunt ary</w>
subst anta</w>
stad iu</w>
sh ake</w>
prevent ed</w>
imp inge</w>
imagin ii</w>
im prison
un itatii</w>
sust ina</w>
pi es
ou fakis</w>
off shore</w>
justit ia</w>
intoar cere</w>
interes ante</w>
h arta</w>
gr am</w>
form ally</w>
cult urala</w>
casator ia</w>
Tr andaf
Bro w
v as
tre ating</w>
sens ul</w>
pet rece</w>
mentin ere</w>
er and</w>
efect ua</w>
credi ble</w>
bol nav</w>
acoper ite</w>
safegu ard</w>
remar cat</w>
pl ed</w>
part ilor</w>
oppon ent</w>
ism elor</w>
indig ene</w>
he ight</w>
enn y</w>
cr ack</w>
bat tery</w>
angaj amentele</w>
an de</w>
aman at</w>
Var oufakis</w>
Emil y</w>
20 ,
urm ei</w>
prec is</w>
ofert e</w>
l ina</w>
favor ita</w>
daun atoare</w>
cant ece</w>
Te her
virt ually</w>
te eth</w>
speech es</w>
princip ii</w>
mar king</w>
local nicii</w>
iz za</w>
coordon area</w>
Biser ica</w>
3 70</w>
vo ices</w>
vi able</w>
um il
proc essing</w>
part iz
n urse</w>
n an
hon or</w>
extin se</w>
bow l</w>
bar r
Stan ford</w>
Rud d</w>
D ow</w>
und oub
restructur are</w>
portfol io</w>
n ton</w>
mart urie</w>
lich id
fe eding</w>
eg a</w>
consol ideze</w>
W inst
T enn
3 0,000</w>
20 30</w>
work place</w>
ur b</w>
train er</w>
rail way</w>
p iv
op ereze</w>
independ enti</w>
gun man</w>
fenom en</w>
etat ea</w>
Hou thi</w>
st amp
le f
implic ations</w>
fur iosi</w>
curs urile</w>
ajut orului</w>
L ub
Bow l</w>
vi u</w>
transport at</w>
tr upei</w>
prelimin ary</w>
oportun itatile</w>
legisl ativa</w>
green house</w>
conc es
Lu is</w>
Boy d</w>
2. 5</w>
recomand ari</w>
proced urii</w>
post ing</w>
islam ici</w>
intellect ual</w>
ins isi</w>
ext ending</w>
enh anced</w>
bl ind</w>
ab ee</w>
T arii</w>
R .</w>
Pu er
J o</w>
Hez bollah</w>
Amend ment</w>
1 3,
ziar ului</w>
t at
stro ke</w>
reus este</w>
priv atiz
olog ia</w>
natiun ile</w>
l ending</w>
es ity</w>
ce ai</w>
aut oc
afirm atia</w>
adres ate</w>
T H
G ood</w>
G MT</w>
Charl otte</w>
C lin
viit oarea</w>
urb ane</w>
traged ie</w>
tens ion</w>
sub mit</w>
rare ori</w>
den unt
aprop iata</w>
agent i</w>
Bal can
B yr
optim ism</w>
n ete</w>
j o</w>
great ly</w>
box es</w>
ar ena</w>
appear ances</w>
ag eous</w>
acc ur
H ockey</w>
tr ips</w>
team mates</w>
sarbator it</w>
sarbat oare</w>
pregat esc</w>
in equality</w>
commiss ioner</w>
W y
Hud son</w>
F .</w>
6 ,000</w>
zi are</w>
temper atura</w>
ro okie</w>
prol ifer
lo aded</w>
inchir iere</w>
extremis m</w>
et nice</w>
es h</w>
Soci alist</w>
Nic ole</w>
ur n</w>
t ica</w>
sper antele</w>
ris es</w>
out put</w>
mas ca</w>
igh ton</w>
dimens iune</w>
Tes la</w>
Intern ationale</w>
D ere
Baron ess</w>
transfrontal iere</w>
re act</w>
erc ul
Phil ip
rol ului</w>
pl ea</w>
ov en</w>
leg ilor</w>
bombar d
art it</w>
am med</w>
SE C</w>
Reg al</w>
N azi</w>
Dod gers</w>
Con turi</w>
de serves</w>
counc ils</w>
chapt er</w>
cap c
c us</w>
ash a</w>
Miss iss
Cub an</w>
v on</w>
v ib
v ezi</w>
inteleg erea</w>
inform atie</w>
detin ute</w>
competitiv itatea</w>
att y</w>
ambit ions</w>
acuz atia</w>
Sh ort
S ta
N at
Bec kham</w>
whe el</w>
viit oarele</w>
put erile</w>
ob ject</w>
m andu</w>
in form</w>
impresion ant</w>
gl ad</w>
f ence</w>
binecu vant
ah s</w>
accommod ation</w>
M unc
ver zi</w>
u ous</w>
t asks</w>
st arring</w>
popul ations</w>
foot y</w>
bomb s</w>
Sto ke</w>
M ade
K .</w>
z er</w>
st il
she et</w>
reces iune</w>
r ului</w>
prof unde</w>
ol dest</w>
err ors</w>
epide m
elimin ata</w>
dumne al
biz ar
Convent ia</w>
8 ,000</w>
war n</w>
tur bul
povest ile</w>
pat uri</w>
nation als</w>
ett es</w>
coo king</w>
com mon
aliz eaza</w>
Teh ran</w>
PRNew swire</w>
L inda</w>
H um
Frank lin</w>
st ak
shap ed</w>
re mov
raport arile</w>
r het
priet enilor</w>
plat ilor</w>
phys ically</w>
leg ume</w>
l ane</w>
infrastr uctur
T S
Institut ului</w>
Husse in</w>
reun iune</w>
iz on</w>
import antly</w>
de mit
cre ierul</w>
apl icat</w>
St ars</w>
K ay
Ga al</w>
tren ds</w>
res idence</w>
rep air</w>
pil ots</w>
origin ale</w>
m inte</w>
intit ulat</w>
gos po
dispar ute</w>
de turn
br anza</w>
Montre al</w>
Mag istr
Car ib
t sun
star urile</w>
s aturat</w>
propriet ar</w>
pre serve</w>
mart ori</w>
lupt atorii</w>
ill o</w>
human ity</w>
Tot tenham</w>
Reg ional</w>
uman itare</w>
treat ments</w>
terap ie</w>
stre aming</w>
om o</w>
n enum
detriment ul</w>
Y emen
zb ura</w>
ver ificarea</w>
v ie</w>
un u</w>
tort ure</w>
nar row</w>
g ather</w>
furniz orii</w>
eliber ate</w>
argu es</w>
apro ba</w>
Mc Il
G addafi</w>
vess els</w>
temper aturile</w>
subsequ ently</w>
res ource</w>
mos che
m ente</w>
intent ions</w>
i en
grec esti</w>
em igr
cre ws</w>
cant itati</w>
u reaza</w>
subst ances</w>
[...]
